[PAD]
[UNK]
[CLS]
[SEP]
[MASK]
[unused1]
[unused2]
[unused3]
[unused4]
[unused5]
[unused6]
[unused7]
[unused8]
[unused9]
,
.
the
of
-
and
in
)
(
to
a
##s
with
that
is
for
]
[
by
as
##1
was
cells
1
were
/
##2
##c
are
on
at
2
we
this
or
##p
al
##b
cell
et
from
be
##3
p
g
##a
an
expression
##l
h
##d
##r
3
##f
;
which
these
5
##t
not
t
s
##n
##k
ph
##e
fig
protein
also
have
##ly
figure
##in
4
##m
0
%
e
it
l
c
–
##4
been
##g
has
##ph
b
cy
6
:
##os
##x
can
d
##op
##al
using
binding
genes
levels
between
pro
may
##6
n
activity
##ation
proteins
all
cancer
gene
both
##v
anti
study
##7
i
but
##ing
##h
10
data
co
mice
other
##te
cd
activation
##9
after
##5
dna
results
7
induced
##re
##8
patients
its
our
such
however
studies
increased
treatment
used
two
##ic
##i
f
their
shown
role
found
ne
specific
ap
r
##to
effect
##o
than
##ine
associated
analysis
=
##ed
observed
‐
trans
bio
end
more
no
human
8
into
signaling
different
##ory
mir
up
##pha
tumor
compared
##gf
il
showed
##y
##tion
high
response
transcription
o
k
im
could
##0
during
effects
well
##se
control
##nt
one
rna
only
##lation
ep
##tic
through
significantly
micro
##ion
pathway
he
non
over
function
further
w
##es
##mun
my
type
##or
per
β
##er
when
ex
group
##cl
including
inhibit
re
de
##ma
mm
er
most
receptor
##ox
##sis
significant
9
growth
m
dependent
reported
##na
thus
complex
increase
##gul
ch
##ated
while
##ida
model
important
development
addition
##gen
act
methyl
level
there
if
α
##me
ca
mediated
##rom
based
time
similar
pre
involved
pc
+
ad
μ
disease
##lu
##on
potential
20
reduced
##mo
##tosis
factor
via
mrna
identified
table
higher
acid
related
regulation
several
number
target
stress
##cellular
##eno
ass
v
first
each
therefore
##oc
di
meta
sp
expressed
12
treated
##ization
’
con
under
domain
three
membrane
sc
system
inhibition
changes
performed
un
##ase
##ct
##id
factors
inhibitor
##ted
tr
kinase
immune
they
mu
ml
##β
##q
although
##cs
low
clinical
lip
inflammatory
demonstrated
fi
present
##co
##cle
tissue
due
formation
u
##cy
##α
pathways
st
##ol
15
##ome
cr
<
##ys
then
ox
some
interaction
molecular
pd
infection
cl
known
24
within
x
production
30
##oth
##ne
had
##ous
induce
mechanisms
poly
presence
intra
cellular
normal
##yp
##le
mechanism
like
down
th
##us
auto
whether
sub
##ns
decreased
##elial
##uro
os
pl
cat
functional
##las
me
proliferation
##ex
##type
site
his
mono
nm
did
##ity
mg
previously
macro
respectively
conditions
##is
hc
inc
vitro
supplementary
so
ve
##yl
pi
en
car
50
##po
##ized
mutant
structure
regulated
ii
##uc
activated
min
25
sequence
##de
peptide
sites
against
vivo
mouse
11
##cytes
nu
positive
##ogen
##tive
##oso
hyper
many
suggest
′
mit
hs
##mic
##tra
same
described
z
samples
##10
##pt
##tok
might
following
##rs
##ia
100
##ry
16
receptors
##pa
region
do
mt
ra
##ps
##ci
culture
##ti
containing
##ar
revealed
ar
##ap
##lo
rec
hydro
show
previous
##ym
13
media
because
single
post
##as
differentiation
interactions
process
lines
genome
18
experiments
##rna
those
14
##ay
secret
##atin
17
form
groups
ci
##z
##um
brain
##53
liver
##tin
suggesting
test
either
survival
##11
##yla
lower
pathogen
total
##la
early
local
small
##fect
##pl
concentration
##ac
loss
##ty
syn
promoter
various
19
mutations
blood
required
cc
whereas
surface
##mi
##xi
pp
gen
##top
active
tissues
detected
amino
multiple
responses
furthermore
resistance
##uba
evidence
ec
y
functions
family
among
si
j
se
drug
##tro
use
##ges
antibody
new
el
iso
ir
moreover
nuclear
ligand
fa
out
molecules
”
models
rep
##hy
ro
“
homo
inter
residues
tn
mc
na
ak
le
contrast
##en
findings
±
highly
ace
where
##12
neurons
q
21
'
interesting
since
therapeutic
te
wild
##io
derived
will
ms
signal
##u
transcript
primary
rate
mitochondrial
ce
##cc
result
phase
cas
##ero
additional
fold
##genic
recent
mod
##fl
obtained
sm
cycle
major
##genesis
terminal
would
37
##press
negative
bc
ser
40
##bro
consistent
##osi
##nas
regions
##rop
species
##sta
##fp
##pas
differences
serum
int
ac
inflammation
##pro
antibodies
##igen
che
flu
viral
22
here
induction
##sc
upon
virus
##ce
damage
any
##ith
concentrations
death
##ting
ct
##bi
05
glucose
##ta
possible
line
muscle
inhibitors
##cos
##ines
progression
release
breast
recently
md
##lr
metabolism
decrease
ability
gs
##ers
plasma
##ca
amp
##lot
lung
without
reduction
##esis
large
cp
##her
##cr
##ge
ni
pt
23
likely
biological
tc
analyzed
key
state
determined
suggested
processes
types
synthesis
het
##les
ga
##am
48
##bla
together
activate
dc
even
long
##13
tumors
cs
suppress
sir
##tos
cho
genetic
risk
ps
atp
stat
##lated
##ro
tri
##ga
transport
extra
experimental
therapy
regulatory
directly
pr
diseases
novel
another
less
interact
host
migration
##14
ab
subunit
independent
indicated
##rc
pu
enhanced
example
absence
mutation
map
lp
°c
##rm
##gg
va
##fa
enhance
very
##ba
play
del
free
exposure
dose
##mal
28
infected
δ
usa
##rin
age
##qui
measured
targets
##cin
sh
confirmed
mo
##cal
essential
days
##ive
br
enzyme
metabolic
ha
antigen
##uron
dr
compounds
degradation
sequences
##ob
##age
##ra
##ri
indicating
research
insulin
determine
sr
26
values
##ch
##da
##st
27
does
stimulation
bi
##gy
##ria
##21
go
investigated
leading
day
hp
ol
embryo
60
bound
rats
stem
##np
four
multi
fe
##xy
hem
change
set
col
expressing
35
mutants
resulting
provide
##omic
29
suggests
mel
combination
−
##ato
common
association
µ
##eti
accumulation
examined
red
ang
##ide
regulate
critical
##etic
indicate
34
##yt
structures
##mp
direct
##lic
κ
adi
##ts
##ate
plate
controls
am
ba
##ho
see
##orescence
order
##tone
animals
differential
vs
targeting
bind
##cino
su
tested
36
##16
knock
##15
domains
pg
##otide
stage
medium
replication
according
cases
affinity
being
structural
how
hd
vi
da
##om
caused
method
bone
case
about
above
##j
ag
affect
##ms
should
nc
able
fl
##sy
considered
size
33
32
##tes
properties
conform
increases
ns
range
##gs
##w
buffer
##sp
pa
es
still
ho
stain
cm
current
enzymes
before
##pe
##ter
reaction
2013
##ocytes
complexes
acids
##ot
##tea
hi
##ses
##fi
met
000
second
injury
followed
>
pm
correlation
characterized
##ip
2012
01
difference
conserved
relative
chronic
ge
body
##th
31
##tina
##20
##osis
##oca
translation
tu
components
_
next
##cer
nr
##osta
##ally
em
##yo
##ano
approach
2011
downstream
##li
##sen
analyses
pan
resulted
cause
overall
value
part
gp
##ini
substrate
available
given
identify
isolated
##mes
leads
##ib
roles
lead
increasing
##ivity
generated
##ea
##och
##hi
plays
path
energy
linked
drugs
length
strain
work
##no
38
##bs
2014
ty
##eg
##ment
contribute
ds
##tor
##fs
light
least
##zy
##ju
##ha
43
45
##rp
1a
ic
2010
##ays
##of
fraction
animal
effective
information
γ
##27
sd
cross
##im
molecule
##rti
##hil
##down
##zo
##ino
manner
##et
produced
##eni
ma
dia
promote
def
##pc
indeed
##bina
pe
##log
##dr
##logical
##oma
2a
×
##fer
gr
res
ts
methods
##sti
ip
##yr
##ological
##17
##rot
shows
##a1
specifically
them
##ize
2009
binds
nano
39
ago
distinct
##osomal
##igo
##one
lo
42
ratio
systems
##38
lc
cu
studied
gas
2015
ta
##ens
##ant
us
##19
elevated
responsible
##hyl
rt
##bility
years
##ons
##gc
hiv
##mb
##form
western
##18
strong
remains
rib
##gno
##bol
aden
action
##hesion
super
developed
plant
np
bp
signals
cn
nk
##ad
sensitivity
##rine
statistical
##ond
den
water
network
##mer
##at
pattern
chain
population
##ten
affected
bacterial
##ative
mass
##len
1b
##°
##ut
##act
##af
alone
sample
markers
rb
temperature
##oh
ko
cb
particular
invasion
strains
aa
patient
regulating
##able
administration
80
regulates
3a
hr
selective
short
##kin
vascular
late
quan
##cit
acute
##ric
##ect
activities
weight
sar
2008
repair
ke
2016
distribution
95
side
seen
events
correlated
solution
demonstrate
oxygen
main
##γ
plants
life
individual
##ent
##mat
par
secondary
mainly
investigate
##per
70
home
##var
physiological
predicted
detect
expected
##bo
detection
##lc
##tu
corresponding
##lia
##oid
##ito
fact
coli
term
established
support
include
potent
class
located
2007
calcium
dime
prime
##sit
sl
##30
44
iii
hm
41
##og
similarly
central
##ls
fusion
##met
channel
taken
generation
##onal
understanding
##ins
##ds
##ub
matrix
##iva
##ysis
##tase
impact
##ici
ste
comparison
##com
cluster
proposed
mean
##zed
##ros
finally
lu
lac
promotes
ss
##29
bacteria
led
##22
ti
##fication
influence
motif
##sa
##ian
ng
despite
##ple
point
46
##δ
rat
cancers
figures
additionally
targeted
—
rs
##lin
channels
##ytic
nucleus
##pi
step
sen
2006
##fu
##can
##aco
flow
##icient
polymer
##yte
##tam
sensitive
resistant
stimulated
##ec
##ose
##ni
features
added
##an
double
##hc
strongly
##pati
##ivation
##ness
subsequent
##00
selected
cal
density
lack
pbs
##nc
loop
exhibited
##go
spec
##mour
##if
compound
kg
forms
limited
##arm
##gic
applied
times
4a
altered
yeast
47
##tri
##tric
##mt
electro
stability
##otype
beta
full
##nu
severe
hip
dysfunction
across
bo
nt
##eli
five
often
##mine
chemical
‘
##tre
wide
##vi
##chemical
ev
evaluated
##xa
##par
##cre
##matic
##ulate
mp
op
para
##40
reduce
##hr
occurs
signalling
much
dd
combined
cardiac
##mas
rather
2017
mat
##lica
##ago
heart
enriched
greater
weeks
##pr
##ial
defined
72
ja
core
better
content
underlying
agents
49
##ors
##od
kit
link
##mark
assessed
sy
la
200
##cation
exposed
provided
standard
00
001
msc
variants
##gt
hand
marker
initial
capacity
##mia
~
approximately
general
top
##ru
mali
amount
presented
##cing
status
2005
##static
##ids
##nic
place
##sic
##some
humans
##lio
sequencing
review
imp
##take
probe
especially
recruitment
diet
##idi
injection
whole
90
position
gel
gt
du
her
##pit
##oli
##25
##ular
##estinal
##tom
yet
fu
##ve
##di
##sts
55
products
##ele
contains
modification
id
##lp
ion
authors
patterns
##nist
hypothesis
included
ut
53
##che
necessary
fox
af
ur
*
thereby
organ
members
predict
future
##lor
who
nl
cad
##ivating
kidney
2004
##45
card
healthy
fc
assembly
54
along
conducted
stable
adult
crystal
##nat
##gl
##glia
##bc
modifications
occur
efficacy
causes
##col
particularly
stages
51
##rified
component
po
transfer
##camp
identification
##lage
regulator
ax
##ani
##du
complete
peripheral
natural
75
prior
context
cleavage
impaired
gb
##fo
hours
##ore
##con
##bet
mor
area
cis
vector
skin
clear
##dro
##gi
##cu
crucial
observations
##lam
##del
52
##ogenic
iv
des
few
chi
##70
##nk
period
mb
li
##ulin
alterations
recognition
phosphate
calculated
file
polar
fatty
##let
##ido
##ka
residue
way
block
importance
produce
##up
trials
subsequently
rates
3d
indicates
##ab
cf
alpha
chromosome
interest
put
2000
diabetes
prevent
56
alternative
quantitative
report
construct
internal
mi
##oni
unique
relevant
##24
appears
##logy
nec
improved
##ii
ins
relatively
2018
##tr
##cular
2003
##ates
##uri
software
##26
ina
individuals
reverse
57
sa
relationship
experiment
##elo
encoding
formed
##oto
eu
#
##eb
##terol
fat
possibility
modified
observation
##life
colon
##pen
##23
collected
elements
##rogen
tb
tau
dil
ind
##mc
express
average
provides
##so
##nd
carried
##80
basal
catalytic
##uration
showing
finding
renal
##tub
mammalian
##xin
##28
##ert
ed
##aly
variety
contain
sigma
complement
innate
##eth
suppression
##omy
##ress
##tat
potentially
cdc
##50
##line
profile
unknown
ant
##atic
au
importantly
##lt
coding
implicated
##he
far
strategy
intensity
ras
tub
cultures
approaches
coa
##31
sufficient
65
syndrome
currently
ld
deficiency
parameters
antagonist
health
membranes
58
##gly
environment
prop
processing
##vir
##hesis
ka
promoting
rapid
##olo
##cter
self
made
reports
final
##rt
reporter
com
poor
##virus
initiation
memory
hence
##chy
est
disorders
##ept
##phi
##sto
protective
infections
visual
subset
##city
tel
##uma
##ss
efficiency
defects
stimulate
##mot
ri
systemic
##py
2002
##tate
synth
##bu
confirm
versus
later
##va
hydrogen
##gra
exhibit
##stic
##fold
##fusion
prostate
##est
##tors
dynamics
##ag
six
##ulation
vitamin
##tein
nuclei
##kar
pain
##pp
imaging
viruses
substrates
##rre
##34
astro
cap
suppressed
59
##lar
valid
liga
requires
96
##32
states
months
displayed
62
frequency
represent
rr
food
##42
##rad
##aa
clearly
##dm
neo
transient
need
certain
toxicity
##ulator
##yn
##36
##ble
63
##tama
##ina
hu
##dna
immunity
precursor
##duction
dynamic
inducing
##ng
##ule
##izing
strategies
fully
male
enrichment
nad
transition
&
##rosis
##nr
trim
improve
upstream
fr
mature
product
##fr
61
gi
around
involvement
##it
por
sk
needed
significance
profiles
##ov
##ulated
##dh
condition
chip
##late
der
vp
##el
reactions
##54
66
##rr
ann
peak
application
##dy
2001
lt
global
##43
subjects
##res
cannot
percentage
assess
67
64
uv
turn
efficient
##oco
majority
promoters
neutral
knockout
##ft
##ota
alter
rich
dh
##nts
cent
reactive
reducing
##tum
##90
volume
washed
highest
characteristics
##ites
localized
anal
##44
c1
##57
controlled
##01
##phy
open
sg
larger
intermediate
metal
##35
oral
ref
left
##oa
##ulo
##ein
maintenance
color
##thy
populations
men
regulators
generally
database
##bin
nh
gal
develop
extent
carbon
##ium
gran
quality
completely
2d
half
terms
kinetic
numbers
##pies
##vas
##set
generate
arrest
help
cascade
treatments
photo
called
abundance
##bial
mer
##ff
##ities
##ray
##iom
##yse
##vid
motifs
fast
gm
notch
mr
##ame
##33
oh
score
though
knowledge
notably
behavior
##ies
##vira
##65
acts
##box
evaluate
remain
affects
##kel
basis
##gm
##ability
ring
abe
now
ki
##bio
entry
##otic
cha
kc
##rb
almost
arab
sf
base
towards
##olic
source
##ari
aging
partially
##ules
##forms
##ze
##ost
seems
##ming
numerous
##ora
ana
sections
tre
points
500
select
modulation
camp
others
contributes
sperm
selection
soluble
##meric
##dine
oxidation
prepared
real
widely
##rat
dl
approved
68
promising
supplement
below
obesity
react
unclear
##iv
onset
##stein
mab
symptoms
##eta
##ibility
pen
panel
chemotherapy
design
released
neural
abc
##em
##cha
##zation
onto
failure
allow
random
diverse
##tal
ia
02
##cent
##ie
radio
##pes
##bri
investigation
designed
note
##ax
mixture
blocking
lucifer
71
environmental
labeled
injected
##min
developmental
try
iron
helix
uc
##tc
##ks
##sf
microscopy
##cci
tolerance
protection
##imi
degree
appear
##hort
close
##tis
##37
##ila
thy
longer
blocked
little
om
##phila
fluorescent
old
explain
electron
screening
published
stained
##gr
become
##ur
ib
clone
constant
resolution
##48
throughout
agent
trial
##uk
developing
invasive
interacting
heat
nor
##ile
mimic
##my
##51
field
toxin
##gin
understand
##39
already
third
69
delivery
##ki
76
lesions
db
##iol
supporting
##ulating
toward
negatively
doses
##fied
hybrid
coupled
examine
sodium
terminus
##av
supported
mis
primarily
candidate
cortex
largely
possibly
useful
##eto
variant
off
best
##ld
material
until
bs
responsive
##psis
variation
##gram
ai
right
##tp
shift
nature
##tec
##gnant
gap
diagnosis
##mina
toxic
##lf
##chan
##pol
##han
discovery
driven
extract
##±
##lat
protocol
amounts
pressure
reduces
##ili
what
##41
##bl
regarding
noted
##sso
series
clusters
fixed
rap
##rative
dt
rapidly
##ler
involving
comparable
lacking
cam
remained
##do
amy
member
skeletal
##ite
week
must
female
locus
fragments
ya
73
barrier
##rane
allows
synthetic
linear
85
abnormal
axis
women
particles
##ren
2019
achieved
##phobic
conclusion
ae
##eric
find
##tated
robust
##dra
advanced
intrinsic
rc
##lates
cut
maintained
##×
strand
##opa
grown
good
display
encoded
aba
##bil
flag
composition
az
contained
##47
plus
74
decreases
background
79
##tility
##rh
usually
stimuli
focused
recognized
sw
image
scientific
fragment
##ami
##κ
##gb
abundant
rn
1999
##pg
disruption
transplant
##ding
reg
##cine
##pose
mid
acc
##lea
canonical
enter
1000
lineage
a2
opt
##cd
##sul
earlier
##dc
thought
##mers
m2
##60
92
probably
##cho
gu
78
green
dea
reference
outcome
extracted
represents
rev
commonly
app
ze
77
once
eli
frequently
bro
mortality
m1
##lase
##46
instead
##bic
##fera
motor
plates
positively
##man
box
ao
areas
hormone
##pressed
respiratory
literature
steps
##nes
##umi
slightly
circulating
ter
kb
##genase
closely
synthesized
exercise
mode
##sin
evolution
bond
require
seed
bt
##ura
##iti
hz
facilitate
subjected
##cor
##ucible
##yna
##ene
##vs
##ction
morphology
##oxide
maintain
##olar
prediction
150
room
##be
tool
manufacturer
yield
##oids
involves
82
cardiovascular
disc
ea
whose
pulmonary
beneficial
##gated
grade
mv
pri
nevertheless
digest
##oe
##sh
##omics
median
transformation
81
vaccine
fed
##ants
sox
##tt
##uated
consequently
##ova
forming
tt
last
##100
ik
mal
disorder
##istic
99
##hari
agreement
##uted
##des
dec
##ast
##iot
reviewed
networks
pv
##md
##ep
##lets
83
air
radiation
##eration
##ala
##ating
cox
space
account
wall
##ton
ck
extended
means
contact
capable
markedly
having
##tl
##ores
latter
##dim
##itic
layer
trafficking
serve
performance
##56
course
lam
threshold
##zing
challenge
##oro
?
detailed
removed
td
##ace
measurements
##gation
element
scale
##ron
section
respond
##ky
##iation
native
##sio
supplemented
retro
year
character
##phate
aggregation
dem
run
technology
##hos
repression
mk
china
sets
##gnan
impairment
##mus
##trom
##ko
intake
##air
tail
##ori
##por
03
##tino
87
extracts
appropriate
broad
adaptive
##isto
depending
contribution
promoted
bis
##ono
feature
##rg
variable
http
##ides
stab
outcomes
##escence
affecting
bb
directed
##ider
##yme
##emia
overnight
explore
mn
qui
adjacent
##morphism
discussed
organization
lin
marrow
gain
spin
1998
occurred
apparent
array
allowed
employed
defense
balance
##yst
reveal
log
version
pol
tag
origin
##ution
ft
disrupt
sep
recovery
apt
understood
sul
corona
84
summary
##lom
itself
wound
basic
adverse
##ptic
##ency
estimated
administered
characteristic
images
ob
trigger
measure
86
98
white
b1
94
##si
##rran
university
diagnostic
##era
##pan
physical
tagged
maximum
aggregate
##loid
prefer
rabbit
date
##uti
transmission
##rte
gut
evaluation
characterization
intro
ethanol
pseudo
parallel
null
##onga
force
triggered
smaller
fetal
zinc
pairs
##olin
##dom
replicate
fit
root
laboratory
blue
88
includes
moi
##valent
##osa
300
extensive
focus
instance
##bb
effectively
causing
acting
incidence
appeared
##lb
##ure
plastic
leukemia
##rdial
89
##ved
spectrum
biology
classical
failed
salt
initially
dominant
accompanied
differentiated
near
##fe
composed
trip
##52
every
bu
a1
##ral
##br
solid
·
substitution
received
depends
producing
manuscript
acquired
baseline
sal
partial
slow
influenza
organs
cognitive
maternal
und
sum
04
feedback
explored
cold
library
##bm
adapt
difficult
mixed
##biotic
deter
besides
##men
identity
expansion
duration
again
sv
index
##ential
##rac
technologies
integrity
##ali
question
considering
##lysis
copy
##rol
93
typically
marked
##−
proportion
97
depleted
chains
cop
pair
##ance
prof
mostly
ul
techniques
efficiently
van
##amy
bra
##vo
band
organisms
overlap
consequence
identical
que
##som
discovered
##hl
ions
obtain
testing
rd
sol
vehicle
##pressing
##tine
reads
analyze
nervous
seven
inactive
##vine
##erative
pep
optimal
##ole
separated
head
1997
fluid
sb
removal
tests
mentioned
##iso
minimal
distance
spatial
##int
##un
ru
providing
interface
"
91
moderate
dual
comparing
allowing
compare
checkpoint
voltage
except
##nac
make
dip
transferred
donor
respect
materials
##drich
search
typical
germany
conversion
cod
mechanical
pathology
clones
restricted
intact
www
##cp
milk
tha
derivatives
event
program
predominantly
asthma
similarity
##ua
elisa
##ling
differ
##pid
rf
##uit
demonstrating
lethal
preventing
tools
soc
##psy
center
##ther
##55
kin
##chrome
##dis
c2
##ram
##hs
##ula
##sat
positions
##ations
purchased
bn
severity
independently
ah
controlling
##fc
undergo
switch
##ir
##gist
##ration
none
cry
attributed
simple
maintaining
regeneration
##ran
##ible
sumo
briefly
mild
##aneous
##irus
reflect
##ents
machinery
##vis
defective
weak
##ai
eight
##ola
temporal
##izes
##df
##car
##cies
##filtration
vent
inner
##lip
av
##lization
##yde
pac
##tan
##ei
mann
fm
insertion
sex
prolonged
clearance
tam
rank
care
hair
harbor
##mide
collectively
##ham
##gal
##gp
nod
minutes
growing
opposite
column
peg
ku
120
defect
nitrogen
remaining
##rn
repeated
##amine
##iate
consistently
tract
125
fisher
##sm
##66
explained
respective
consumption
observe
gradient
##llin
##roid
compartment
neither
##son
##quin
ten
aim
##astic
##lence
procedure
great
page
##tur
surgery
atm
insights
minor
smooth
read
improvement
advantage
##eit
rip
substantial
med
##typic
bonds
##codes
art
##din
##75
start
##que
represented
divided
##vate
nerve
##49
scores
pet
chromosomes
docking
children
exist
repeat
simulations
constructed
##uki
##cta
##fat
unlike
exact
normally
feeding
conventional
families
1996
medical
##ciation
preparation
##uate
peaks
naive
ot
##pin
##rase
##ath
spinal
crisp
view
supplemental
liquid
classified
##ged
fibers
protect
##iling
dietary
##eter
oxide
##nea
deposition
uk
cerebral
##ella
##ck
aspects
rise
namely
##eo
sugar
exchange
location
utilized
spectra
charge
leaves
##dd
prevention
##eles
initiate
##red
actions
ali
mast
benefit
follow
##pathy
counter
microscope
entire
##ht
successfully
add
purification
##gate
alcohol
phenomenon
##itis
relationships
##active
equivalent
address
##der
##64
##elin
album
prevents
pot
curve
##ig
proton
graph
##graphy
##tension
computational
applications
saline
daily
##scu
transformed
##lice
cv
assessment
supports
healing
conversely
400
excess
susceptible
mei
why
101
reversed
outer
mammals
##oll
rear
##thi
##layer
##cca
gala
reached
amplified
simultaneously
oct
##cat
caps
##pot
propose
poorly
excessive
consists
young
rice
integration
prevented
distal
comprehensive
##ring
isolation
blockade
introduced
participate
limiting
cart
##gos
sam
##il
##metric
pocket
parasite
proto
isolate
##dal
##cans
sci
##ans
##rf
coated
stimulus
successful
##avi
triggers
sur
##fb
sq
alignment
relevance
net
involve
implant
equal
ultimately
sat
contributing
evident
accordingly
##mar
establish
proper
nearly
recruited
expressions
vessels
carrying
pool
##film
division
treat
changed
pit
sec
centro
movement
template
newly
consensus
wang
stranded
benz
##nch
##itor
##rro
analog
extraction
morphological
##ira
lateral
##iz
enhancement
≥
coupling
participants
fish
abnormalities
##sse
occurring
separate
recorded
sac
##uta
attention
colony
##gas
regression
regard
##das
insight
instructions
learning
done
platform
enhancing
occurrence
validation
immediately
##iq
leaf
##chi
##mma
measurement
dos
depend
sources
precise
cord
external
##ncy
##far
##tively
strength
##nti
cost
representative
bal
decreasing
screen
tube
rare
##ulates
deficit
safety
##tage
achieve
##ln
fur
contributed
rescue
novo
##ime
obe
bodies
possess
##za
maximal
lb
criteria
##cap
coe
solvent
accordance
sleep
availability
wi
dark
##icular
just
flux
interfere
##ification
delayed
man
sin
##hes
aux
##para
spontaneous
segment
prominent
share
starting
##ics
##code
junction
forward
pal
consequences
##lit
##illa
processed
##tions
blocks
##reus
upper
##ae
##the
absent
val
##pd
##rate
raw
org
shorter
progressive
sensing
##rang
accumulate
shape
##gel
##pf
lost
sensor
making
access
##iae
classes
input
pregnancy
circa
##ressed
##therapy
##mit
##rd
250
extensively
sustained
shock
referred
##dian
##86
##omo
##ary
##lum
limit
##nation
##hen
paper
determination
intervention
stroke
bands
##ras
beyond
mac
##sor
ultra
dex
les
qi
conclude
emerging
##mm
##ser
##rating
reason
##ode
aggressive
gram
loading
follows
##fish
stabilization
##ctor
associations
##lab
##amp
##way
signature
integrated
ff
##itan
stronger
ie
unable
etc
charged
editing
stored
technique
alternatively
correct
xi
##lla
##rio
sulfate
##oi
seem
consisting
repeats
jun
overcome
nodes
original
rv
needs
placed
##ption
130
##lm
verified
trend
inside
striking
take
##bra
##dle
kappa
acidic
contacts
labeling
alteration
distributed
##59
rig
vis
nico
blast
##rence
##vant
units
##ancy
concept
turnover
orientation
triple
continuous
beads
article
suitable
cruz
gamma
pod
##rization
u2
mini
zhang
restriction
diminished
diversity
back
unit
initiated
##ica
dramatically
makes
colleagues
treating
ala
stabilize
medicine
cycles
existing
diameter
ratios
adaptation
##85
1995
##fin
vectors
lei
separation
ranging
##ener
##ny
spa
##zes
##chemist
investigations
variations
lungs
arm
##lita
##tose
vc
documented
##hm
06
##ces
sense
bearing
twice
##val
restored
cervical
identifying
power
confirming
matched
presentation
determining
io
details
greatly
##ava
##bn
monitored
list
##ech
##ical
##egan
##fide
parental
fungi
steady
attachment
indirectly
amplitude
##zh
behavioral
##olate
perform
abolished
infectious
demonstrates
sept
comparisons
aged
mill
##fy
collection
surrounding
subject
vaccines
idea
examples
##ulum
commercial
persistent
contract
recognize
palm
##ded
##ave
##cic
live
transcribed
limitations
##abi
progress
##su
harvested
exhibits
##hd
##plex
candidates
##put
absorption
sham
loops
santa
adam
aimed
training
social
##cut
##cera
indirect
dye
analogue
closed
ill
qu
let
delay
##ug
males
##raf
shared
classification
online
worldwide
reach
rpm
bladder
##aro
setting
offspring
describe
inclusion
##tory
##zu
##lating
conduct
##plication
folding
subgroup
ice
este
##vin
##ride
obvious
park
ee
deco
node
bud
tax
##ience
##den
linking
damaged
bar
people
past
stimulating
140
currents
##kr
females
adults
##oton
##ef
tor
##lli
rock
##ote
##lized
diver
define
complexity
architecture
##sl
##tus
depression
mapped
termed
extension
dependence
##pus
avoid
give
middle
acquisition
loaded
##58
complementary
##ster
##gre
##los
facilitates
million
exclusively
explanation
##lis
procedures
##ema
##ven
intriguing
##ology
perhaps
##sb
zebra
##gon
##logic
named
##sd
##cia
clinic
##wi
##ement
thyroid
##nta
ends
##uo
drive
frequent
tim
mic
world
lane
pronounced
##pressive
bas
true
lent
japan
129
combinations
surprisingly
##ility
vital
requirement
module
tip
researchers
generating
storage
103
inverse
muscles
110
dorsal
gate
neon
sim
remarkably
##gat
spread
um
evolutionary
##grade
summarized
existence
influences
##nb
seeded
##ism
##rba
substantially
293
##eous
2020
examination
##cite
##hetic
##duced
##pod
##and
##ima
phases
104
san
decline
fungal
##ffi
prom
##nos
variability
label
drought
##ben
231
##lux
listed
influenced
fate
trail
ham
monitoring
problem
excluded
own
##ril
##llet
##ves
##isation
overlapping
##leen
##pop
##ape
##end
##tar
outside
paired
complications
##az
1994
bias
compartments
reveals
##rit
##oz
modeling
##ati
lab
becomes
specimens
shi
122
hospital
load
##pre
truncated
corn
##sg
readily
pic
##phic
##don
##olis
gin
nutrient
differentiate
##ena
##ety
simulation
mapping
##ner
probability
dimensional
detail
relation
brains
##rce
interference
gold
particle
fan
ensure
##ll
##ically
parameter
caf
alzheimer
organism
fruit
##sed
##ised
##rmin
##rim
neurological
contraction
07
rest
102
verify
sensory
semi
phylogenetic
remove
##ctive
adjusted
notion
hormones
##ccus
##cel
prevalence
##atory
graf
magnitude
##ones
chosen
f1
106
gag
##quest
ks
hind
##pm
##gent
nine
nos
serves
categories
shed
ju
replaced
focal
raf
incorporation
arthritis
##asia
##deh
diffusion
toll
##zi
restore
##bation
efforts
finger
za
##nn
##ening
nas
##lices
##vers
ray
##ya
alan
isle
concluded
backbone
copper
##ev
measuring
eventually
burden
equilibrium
hallmark
pin
situ
considerable
##tones
converted
##rial
scheme
cyclic
og
produces
##rion
105
opening
##cate
tightly
sequential
124
easily
circulation
dim
chen
##aga
111
##yra
connected
##iated
ads
##his
capture
competitive
aug
##pse
##ico
pip
clock
extremely
implications
107
believed
curves
fundamental
##ulf
assigned
##ara
bottom
xl
hk
annex
committee
##au
enable
always
##cot
##har
##mis
exists
##ologies
photos
surfaces
protocols
chinese
viable
chamber
##dp
##ging
adding
regardless
accumulated
una
magnetic
##sol
##ue
presumably
protected
ing
hepatitis
##oria
126
communication
##nate
##rod
solutions
##uz
management
liu
traditional
##mon
ones
rm
pivotal
##med
algorithm
export
##mos
fused
hour
##logue
##ions
##mu
behaviour
varying
##yd
##tify
history
bon
apical
output
taking
retention
proved
wa
##rdi
##ios
segments
measures
deep
##usa
##pta
regime
killing
##rea
rescued
conde
##ters
heavy
colonies
##bos
marks
elevation
ata
era
variables
laser
guide
stiff
donors
partners
retained
distant
gang
allergic
##ere
genetically
smoking
atoms
issue
##nz
direction
##pone
##atal
##bit
116
je
diagnosed
representing
faster
disrupted
km
mad
parasites
09
improving
sap
import
contrary
partly
##lk
fiber
##hin
modest
##eur
##art
tx
schizophrenia
##yle
deviation
pam
08
living
##oy
epa
##nction
accuracy
junctions
conservation
eps
unpublished
larvae
proximity
derivative
likewise
##ified
distinguish
tak
mobility
roots
##ain
egg
libraries
appearance
hot
##200
structurally
##urrent
national
sun
task
133
goat
resonance
1993
diffuse
##ious
##vera
otherwise
star
introduction
##pon
assembled
abs
adhere
suspension
attached
cave
aid
hoc
portion
quite
instability
aromatic
sought
resting
lowest
##xia
highlighted
##ja
formal
receiving
purpose
minimum
135
##ection
older
155
112
aero
created
birth
##ning
rational
oil
##db
##omi
became
proven
accession
comparative
imprint
decades
##rk
##ice
##nad
plaque
rms
##pad
##bid
##get
chicken
##cie
addressed
emerged
##nia
##™
vary
##rl
##gli
##ete
##eh
fragmentation
declare
organic
lee
enough
##bed
ry
envelope
slides
σ
variance
error
fewer
residual
engineered
too
##llo
highlight
embedded
rot
face
108
interpretation
##pic
115
favor
protects
thermal
##ific
118
flies
undergoing
influx
deleted
cargo
unchanged
##ye
replacement
##cus
lifespan
tight
advances
urine
≤
artery
atom
##ssa
master
pneumonia
nap
frequencies
randomly
silenced
saliva
biotechnology
wu
##balance
##oin
escape
brown
surgical
##fen
pop
##aton
drop
malaria
fresh
##ind
##ane
pun
##sion
##nl
##nca
113
combining
slight
##piration
ua
128
radical
##ret
##eron
##ega
##ope
##km
##gna
##atics
cavity
##vac
quad
benefits
associate
accurate
smoke
##dar
unlikely
false
illustrated
exclude
laboratories
parts
antibiotics
stresses
eng
109
consider
yielded
var
triggering
123
##rid
trap
apart
##kk
recovered
studying
##ke
mala
carriers
pas
expanded
driving
ongoing
establishment
degraded
counts
delta
reasons
tandem
prone
black
##ist
countries
##mate
##bron
frame
plc
##ivate
modules
##rco
databases
##vity
salmon
empty
##ont
kim
##org
preference
127
visible
challenges
##cher
tune
##link
wo
institute
amid
sea
##rta
dramatic
##elles
reproductive
##gga
pub
ll
largest
presenting
##hic
##ual
elimination
138
##ties
count
vessel
project
##vent
##try
ren
##cm
interfering
recommended
property
gland
altering
132
route
pig
gale
##rug
##uation
##tech
##emi
questions
snail
naturally
tables
accelerated
potassium
##ona
plaques
attractive
optical
effectiveness
##rup
##lim
##nce
originally
145
valuable
speed
meanwhile
lanes
evolved
behaviors
##iating
coefficient
anterior
pull
114
powerful
inactivated
leak
simultaneous
absolute
hearts
replica
vt
##for
resident
systematic
reflected
objective
renewal
month
copies
119
alleviate
reflects
evidenced
##oked
##hosis
det
favorable
##gn
screened
discuss
##het
chloride
##tm
deprivation
arterial
##ntal
decay
arise
unaffected
amin
stereo
##ously
##mg
enables
incorporated
coverage
##mous
absorb
als
##hg
conflict
mil
corresponds
actively
frozen
niche
goal
dissolved
fission
predominant
layers
traits
##att
emission
##itors
gave
121
##pathic
117
##lus
equation
##llus
exception
##ryl
create
ubiquitous
##non
immature
supply
uses
starvation
predictions
thickness
##ergy
investigating
##ish
preliminary
superfamily
pigment
clarify
ltd
##grad
patch
##cted
wash
constitute
insect
dead
##growth
##sel
filter
mag
slower
washing
eliminate
pigs
##bor
sync
resolved
assumed
##ita
143
##sco
xp
coordinated
depth
##gh
600
principal
tree
problems
##ang
raised
worse
chop
##hing
ile
flexibility
clade
student
fork
recruit
crypt
##path
##carbon
physiology
##sas
##lein
incomplete
varied
reliable
ran
limitation
links
zone
gradually
noise
##lian
##fk
changing
tea
stabilized
glass
indo
premature
flexible
##ah
##mpt
carry
remarkable
##ife
comprising
##tial
actually
##cule
success
##mann
##kali
##vr
indicative
sizes
parent
apparently
signs
timing
##ffin
roche
vo
ara
excellent
manifestation
facilitating
ways
belonging
##ages
bases
contents
sorting
##hp
bea
dry
safe
##xt
bf
forces
accept
##ste
##phine
131
improves
##lino
fashion
##mation
##nor
concentrated
eye
widespread
tar
guidelines
wave
##oic
##rem
pure
partner
parkinson
prc
##play
148
coil
fine
engineering
##ver
altogether
##rogate
rode
##lch
##more
##iste
##wa
sting
carrier
participates
takes
stop
extend
chemicals
artificial
##ries
##nal
beginning
##llation
##lani
kept
##ensis
##ffer
cot
doc
tan
nonetheless
##vc
mas
##ichi
signatures
yo
theory
break
away
eva
hub
##ssi
sera
##eri
functionality
specialized
trace
##ker
fra
advantages
estimate
##uke
1992
##elli
paradigm
matter
gender
##rka
##ject
interval
transforming
##tf
##ill
neck
bet
##sr
percent
manipulation
##kis
din
insufficient
##cb
tuberculosis
coordination
yang
##lastic
##brate
##oning
cult
scanning
poole
displays
##rogated
maps
##ining
##hal
joint
fda
continued
##hog
louis
mix
surprising
wheat
destruction
##entation
##point
die
utilization
owing
##stra
situation
prism
functioning
##folding
accessible
##μ
λ
##cam
experience
superior
programmed
##oki
##dl
lap
##itive
disco
##sing
exit
underwent
similarities
##ciency
##moto
tend
tobacco
180
lacks
posterior
indicator
serious
huh
possesses
##lled
##pine
##vu
bridge
periphery
challenging
severely
insert
interventions
hit
mineral
accelerate
ventral
##ence
fk
##uring
##ber
programs
belong
ny
146
package
circuit
miss
##stan
presents
##ped
modify
science
ami
##systems
former
fx
139
spp
modes
ky
filtered
tom
analyzing
separately
##∆
category
delivered
slices
rule
working
##ix
choice
increasingly
labelled
cow
arch
confidence
irs
raft
belongs
substances
united
##sca
aurora
arrays
##well
##ired
modifying
exclusion
periods
##talk
house
https
##ista
gem
##rano
compact
##tia
sampling
competition
settings
code
clustered
bat
norm
##ws
asked
shifts
edge
##was
##oche
thin
##dia
considerably
lesser
additive
breaks
minimize
temperatures
yellow
conditioned
implying
yu
brief
plot
rodents
alexa
inserted
##iss
dried
counted
yields
window
##ger
persist
accepted
134
captured
performing
##gam
##cence
duct
dat
essentially
##ense
##bly
mps
capability
##odies
##brates
anchor
offer
mw
seeds
weaker
##actic
##400
implies
formulation
spectroscopy
worth
simply
##wise
carl
preparations
posts
##ej
equally
reader
##ute
wb
bile
critically
healthcare
issues
initiating
##hra
##als
144
passive
##erted
fatigue
motion
locations
construction
apparatus
##ald
vein
##oo
##mania
137
concerning
##tera
##sable
tubular
##ou
themselves
detrimental
comprised
eh
##quent
thick
special
subfamily
##ade
compromised
chemistry
facilitated
albeit
practice
##rus
controversial
recycling
une
tap
prep
tbs
##uli
##mission
prevalent
radicals
environments
soft
relaxation
##table
##ination
damp
##lun
##oper
##iology
phd
catalyst
cocktail
profound
##ivar
driver
circular
public
##ik
configuration
pump
##cis
complicated
##adi
142
monitor
substituted
shifted
string
##ich
correspond
neighboring
appendix
##lies
##kal
##tation
contributions
conditional
counterparts
associates
colonization
nutritional
fore
##gan
examining
missing
##nx
##aru
fix
panels
##nge
unfortunately
mca
##card
litter
intense
##lie
generates
deaths
##ε
##uda
causal
closure
##bino
purity
gov
##hid
persistence
restoration
connection
limits
##side
##®
ideal
ems
reaching
immediate
come
##nami
challenged
mark
flowering
##rag
223
|
principle
warrant
##inate
##cope
##sal
migrate
requirements
dementia
adapted
##ana
mar
exhibiting
##tative
spots
nutrients
##net
groove
aspect
played
141
tata
cues
aligned
rage
##rated
wells
rings
##ass
kai
shaped
##dic
drives
mhz
##quil
emergence
started
tags
geo
comprises
bin
grow
##cture
##jun
bulk
##yce
136
fields
connectivity
mock
nasal
island
cassette
##ak
spot
##position
##sper
sole
strands
financial
sensors
aaa
distributions
consisted
fourth
prospective
redundant
detecting
pcs
cooperative
never
whereby
corrected
##shi
ud
arc
releasing
european
vin
utilizing
shanghai
expect
##oder
nude
luc
##qu
contra
exponential
##hea
undergoes
passage
ok
##lly
1991
consideration
adopt
correction
round
##nin
##bia
##mona
210
##bes
infants
##mut
psi
obviously
##lent
repertoire
##dation
ionic
predicting
450
gall
flanking
intern
##nary
spreading
1990
##icles
noteworthy
pad
##long
pulse
##sms
agile
##dt
convert
refer
recognizes
highlights
##hri
depicted
duplicate
##rator
##hot
ned
promotion
160
rigid
utility
notable
differs
technical
users
regarded
infant
151
analogous
##cas
##cula
assessing
##erine
tension
##ony
##hip
##less
##bot
wr
odor
eco
lux
dub
##zd
branch
##zone
cast
individually
switching
##lib
elderly
competing
800
##plate
formula
satellite
##yne
##rum
hosts
relies
analytical
infiltrate
differently
reading
evaluating
migratory
theoretical
zero
actual
accessibility
##lan
##gina
walt
regular
nic
kind
scan
nash
unrelated
##nh
##than
electrical
calculate
injured
name
##ong
computed
##asi
##ort
##rval
##berg
##uf
wing
physically
##hn
##lings
##eva
paternal
##meter
alt
somewhat
##ains
crystals
american
representation
applying
maize
speculated
augmented
broadly
perspective
##tile
intervals
##yal
inability
##ata
decade
coordinate
transported
options
gives
spike
rely
##ris
slowly
desired
autonomous
sign
•
fall
##wee
covers
limb
##xide
ssr
designated
pairing
enabled
##gens
lim
bay
origins
bai
pup
mega
scenario
transform
consecutive
##lium
protecting
attack
hydra
repetitive
##orin
##tly
reasonable
sterile
firstly
vr
arteries
usage
survive
##inas
electrode
bleeding
bid
nes
##ibe
##cated
##thal
fen
call
##vary
reflecting
workers
##gni
bk
batch
##ional
imply
serial
lowering
web
pregnant
reversal
experienced
##uen
##port
##station
completed
##bh
breakdown
unfolded
war
quickly
description
##agi
firing
##lid
##aca
##ural
compatible
##eras
bacterium
sas
##eptive
engagement
##pu
##off
focusing
glands
kv
##cript
tolerated
##bell
##qua
##lion
##gus
wat
enabling
##icle
vast
conclusions
##inal
quantity
adequate
##ifier
impacts
loco
rag
framework
##hmi
option
cocaine
ever
##zer
193
kan
translated
personal
approval
mri
preferred
π
intensive
acquire
behind
angle
##factory
international
calculations
necessarily
chose
locally
ada
205
revealing
unexpected
lamp
##dium
know
tendency
ole
reciprocal
##tag
##load
##fers
anxiety
##aq
##cala
stretch
eliminated
152
##llary
works
##itate
##all
differed
talk
segregation
zip
removing
consent
##hre
marine
hits
sometimes
deposited
classic
community
##ire
ages
##resses
cw
##ise
##hab
ira
withdrawal
propagation
easy
##imo
institutional
##hesive
##tha
wrote
reductions
lifetime
bonding
genetics
##bank
vol
##ew
##rued
implemented
establishing
sporadic
coiled
tal
fail
##metry
ethics
jc
format
181
xu
##mere
determines
scoring
influencing
##3d
##eal
wasp
##rra
resources
##ater
proportional
comprise
psycho
##uria
massive
atomic
##vation
cone
pass
##nism
informed
tubes
##ometric
mobilization
stock
rarely
##vert
weakly
sonic
##tituted
recipient
optimization
plots
worms
dense
nut
##nga
degrees
competent
offers
overview
calm
lengths
entirely
aka
wei
##ku
##tens
fitness
##tology
dar
recruits
##mps
attempt
mobile
##liga
plausible
varies
fly
##nger
dot
perception
halo
assemble
continuously
termination
##iff
aforementioned
believe
##iga
##eu
distances
mx
integral
##ots
ape
soy
solely
##ml
border
##rri
marginal
##lov
##nare
maintains
longevity
get
conjunction
huang
integrate
twenty
improvements
##lide
##rien
methodology
frames
took
preserved
##ndi
ipa
→
##ester
whilst
##je
##base
twist
147
##ctable
##gence
rein
##eses
##usion
precisely
accounts
exclusive
##nis
##loe
##→
assume
concern
connect
highlighting
universal
continue
horse
##inator
##ess
##rone
resource
##bf
helps
damaging
##iri
strongest
149
dq
##app
##fm
##dell
confirms
abdominal
genus
##alic
pts
##acy
front
accurately
dorm
venom
stationary
anne
eggs
nat
benign
defining
##und
arrangement
files
ore
nur
snap
utilize
##elle
inherited
knocked
iq
##aea
built
##tta
simulated
199
messenger
volumes
extreme
plan
abilities
immortal
pearson
pak
##rou
##ncies
##pac
sheet
assumption
dice
dan
pyramid
match
ahl
dam
prove
lived
bypass
crude
##mura
##fus
##row
dial
lens
##ments
interpreted
##eft
building
##oles
checked
sciences
##nging
153
170
##ud
pat
cambridge
migrating
shell
lame
exploited
definition
stressed
fever
unless
mosquito
154
weights
##king
bad
diego
spectral
suspended
requiring
##ach
##tance
##phon
rose
dog
mother
effort
feed
pharmaceutical
sorted
closer
branching
gdp
covered
aldo
giving
pollen
microscopic
gained
kill
noticed
herb
##mini
polymers
displaying
##bine
energetic
african
wavelength
pink
machine
dod
greatest
shear
pools
fluctuations
width
estimates
uniform
consist
214
commercially
rom
restrict
receive
subtle
elusive
##we
race
compete
publication
das
saturated
render
cai
height
##nna
discussion
stomach
##sar
##obe
proof
##hom
sheep
positioned
she
employing
##achi
capsule
##missive
comb
landscape
reviews
frontal
creating
ache
##ifiers
##bolic
topical
##els
mig
move
##liner
##flow
prompted
bow
lean
patches
displacement
ε
roc
killer
##physical
##scopic
positioning
trauma
surveillance
api
hierarchical
childhood
deliver
##out
##uni
##rov
##yk
arid
precision
nest
inform
##bre
##monium
##ek
##hh
##ulus
nah
##sities
attempts
sponge
reporting
garlic
##cise
blunt
strictly
keeping
ups
fitting
##sk
ranged
196
served
##enia
branched
mai
##ache
seemed
dock
newborn
humor
##ier
##hae
candi
raises
unstable
device
stated
##mad
##ars
##rip
rim
substance
participated
##ard
harmful
draw
organized
165
##pet
contexts
##pher
square
##ping
words
uncover
sulfur
suffering
radial
connections
158
##class
attempted
span
##bular
kn
##ibly
##led
rotation
1989
statistics
inherent
testosterone
islands
##ul
##mac
purposes
##cision
sister
errors
ω
reward
##front
opportunity
##azi
velocity
platinum
jan
##bate
resin
expand
burst
##lde
mixing
##gating
compensate
lasting
becoming
arms
##lina
##mel
retain
##hema
157
build
##bella
##bound
movements
sexual
##gut
##ior
##git
equipped
died
##wo
cycling
coordinates
##mur
##vor
folded
rod
ranges
discrete
nik
picture
fertility
##ented
unusual
156
grouped
lobe
contamination
##rma
##cum
##quisite
han
ops
##ui
split
##hwa
algorithms
demand
automated
longitudinal
192
##bt
rfc
versa
##onic
spat
arrested
concerns
##tz
pediatric
rca
circuits
##ifer
soil
fitted
constitutes
likelihood
carefully
fatal
check
opposing
bam
nitrate
##vd
applicable
##old
coincide
transmitted
meg
cumulative
##uter
players
##any
piper
spine
adopted
written
168
tomato
decided
bilateral
recruiting
prem
pole
insects
##sil
grain
##lau
##graphic
seizures
explains
##aud
freshly
##ede
terminals
spanning
transitions
investigators
5000
##gua
assisted
shares
elsewhere
virtually
indication
arrow
boost
##nated
##ust
161
zhou
mounted
tails
forks
concert
##xx
##ctors
biomass
mia
comes
playing
##case
default
thereafter
platforms
max
edges
##hore
sharp
opposed
##nar
moderately
topology
properly
primate
dig
portal
distinguished
manifest
##ography
m3
##ads
converge
narrow
##bus
doi
##orf
##wt
##ull
sang
##ving
mental
##tet
lie
700
##geny
calculation
inputs
gray
hop
cpc
tolerant
##ois
searched
##unda
chow
alternate
exploration
##ilis
##pres
dad
##ened
responding
##rel
tab
##athy
##fur
phenomena
1988
reservoir
deng
350
penetration
medicinal
mrs
##tain
##hel
bruce
cbs
##uity
plotted
pest
lastly
counting
afl
##dev
ripe
yielding
##igate
eyes
##script
describes
159
converting
devices
congenital
##udi
sustain
running
coefficients
##ginal
##kers
##uss
kaplan
radios
directional
##llar
##ipe
##lak
articles
illustrate
estimation
##ogical
##raz
south
definitive
##gible
cooperate
amongst
##head
routes
sufficiently
##ered
##mates
cfa
recognizing
muller
##φ
coat
coating
decision
lowered
##bar
hal
##sum
promise
thor
##tte
pointed
arising
trends
submitted
320
humid
cultivation
uncovered
solved
collective
pga
recordings
silence
fluids
dent
powder
tailed
progressively
leg
##nsor
##inated
participation
feasible
##tem
writing
##rist
##tite
clarified
globally
centers
##ux
spontaneously
##nous
medial
3000
##itia
##culture
##thesis
scattering
dogs
bath
##not
##ols
regional
ave
characterised
matching
describing
atlas
accounting
npr
anatomical
bait
barriers
roi
τ
identifies
tokyo
constituents
expresses
biomedical
tad
##burg
##rys
gross
tended
trained
foreign
##ski
static
metals
##has
reorganization
afford
{
silent
##ering
biased
department
flex
folds
##roi
breeding
exploring
cong
##wr
jo
167
##zine
object
scar
killed
broader
elk
##sive
productive
unexpectedly
specification
mating
}
ordered
hundreds
dividing
ethical
trait
ji
##rino
como
##sur
inward
##pment
##use
##morphic
175
arsenic
standards
##js
digital
droplets
text
163
##open
fruits
younger
adulthood
server
recess
quantities
##ieu
modeled
##iro
172
##uating
instrument
von
212
pea
resolve
##mx
##aling
spite
hen
slit
muscular
apply
##rich
occupied
operated
##mir
##abe
west
##tara
lewis
elongated
basement
conferred
foot
##cts
atmosphere
sacrificed
forced
bun
walls
##tas
##dio
chickens
confirmation
mind
mum
video
##rix
shu
##ask
ask
enrolled
201
crop
##ful
minute
ric
lan
categorized
anchored
injuries
drawn
ix
##lins
arte
confined
exploit
screens
sip
##elia
ear
csa
manually
##cious
seconds
partition
develops
scored
##sko
##romatic
mori
inverted
resist
##san
##ctic
kits
ranked
##kt
balanced
##dition
possibilities
tertiary
##esthesia
electronic
invading
counterpart
nutrition
mathematical
ben
##roids
conflicting
risks
bent
flat
drastically
consumed
secondly
##vic
##jo
kinds
hat
moving
averaged
jackson
##raphic
##mbe
reproduction
poll
220
competence
lithium
##odes
completion
retrieved
##neo
emerge
cure
##ital
swelling
rama
cover
debris
publications
extends
systematically
240
lies
##rave
##ifies
excluding
##ulla
difficulties
ground
hai
##idium
guided
discrimination
boundary
topic
flash
##usions
turned
##tics
responded
accessory
##gia
tram
recover
recording
roughly
big
stores
born
stack
sympathetic
uniquely
connecting
202
sic
1640
routine
203
##lon
branches
compromise
artemis
##cano
retrieval
vulnerable
∆
164
ether
handling
packaging
avid
dissemination
##lle
grid
pipe
##ator
foods
specified
183
energies
##typical
bank
discover
outbreak
##kh
264
##idal
##nsed
##ell
precipitation
epic
northern
176
nam
##bas
##dog
disturbances
##uis
162
adherence
homogeneous
matrices
zen
cattle
paradox
##lden
parasitic
obtaining
situations
vicinity
housed
corresponded
plane
lifestyle
shoot
resultant
ink
ye
##erin
arises
costs
manual
dental
assemblies
##aj
resembles
modern
capabilities
aims
##anial
##rance
ama
bag
##hini
##key
pipeline
##aki
##cial
sha
190
dependency
##mics
filled
##idae
player
extending
##rth
illness
rio
##edo
user
keep
nj
contributor
blind
##ius
185
consuming
reconstruction
eagle
##yas
constraints
olympus
interfaces
knocking
##amo
conceptual
##oric
freezing
grew
guidance
ich
##ture
trees
scrambled
smith
fails
##fra
##dit
mcc
##rut
##apa
conceived
reside
retrospective
##hala
1987
correctly
##wind
taxa
crossed
spores
##tv
returned
hms
foundation
195
originating
##oda
hedge
reminiscent
arrows
silver
implication
continues
174
traffic
clean
##sons
##comb
introduce
##by
begins
mesa
gradual
chambers
fear
thousands
fuji
originated
##uka
centre
166
probable
##ih
bout
curvature
cache
##ntly
practical
whitney
dishes
bundle
columns
tie
hips
concord
medications
geometry
##spar
deposits
fungus
interests
##gue
zhao
operating
outward
concurrent
distinctive
##ifying
vip
began
rhythm
##rice
photon
directions
orchestra
anticipated
david
##cede
canine
lose
strict
lit
##ada
meal
burn
elastic
medication
##sia
fibre
vice
certainly
apr
meet
bars
mothers
demonstration
explaining
##iensis
208
jam
deeper
recipients
rejection
##ined
disability
##ern
lattice
och
indicators
zhu
korea
heating
plateau
204
proportions
industrial
sort
raise
182
march
accounted
word
helpful
composite
inconsistent
chance
##lang
operation
ensemble
illustrates
pick
##nio
til
differing
psychiatric
begin
bridges
devoid
volunteers
invade
chu
tasks
lot
##our
##tment
hard
supplied
europe
refers
##rso
discs
aj
##lateral
crossing
hold
advance
pumps
##yx
tuning
alcoholic
designing
drinking
##leg
##lco
##hu
##nem
reasoned
##ψ
1986
169
##ey
oriented
surviving
computer
instruments
##star
approximate
helped
waves
horn
##nai
converts
declined
lev
beijing
melting
integrating
cotton
downloaded
wet
##mba
favors
suffer
nets
zones
carr
cab
soon
ars
camera
##lusion
##cting
##ceae
##drop
cooper
##sma
tracking
mutually
171
cholera
lists
nearby
##ories
##alo
ram
joining
modelling
principles
electrons
matches
##dre
llc
sized
preservation
supplements
airways
##clusive
inheritance
autism
flower
##chin
##ked
heavily
##tical
fire
##vable
##inating
aids
hog
isotope
magnesium
difficulty
starts
##nut
conditioning
introducing
280
enlarged
cultivated
accomplished
##pate
gaps
##lines
slide
illumination
track
runs
##uso
circumstances
##ale
##sphere
originate
city
meaning
sampled
##version
##smo
wherein
##ow
##posed
exactly
participating
cleared
orange
wanted
noting
hundred
recommendations
stopped
##idia
held
##rch
detector
assuming
nsa
##ptive
resemble
##fying
sphere
align
##pel
query
pia
##lone
##ado
migrated
##ear
##lter
χ
##cology
france
222
starved
meat
ash
earliest
optic
refined
school
##ured
commitment
poorer
##lei
orders
leaving
shut
restoring
bipolar
inorganic
260
wider
ineffective
bright
##icum
339
reaches
undertaken
nerves
##uer
##wat
stalled
##iam
crops
combat
foster
flip
##rini
enters
defence
store
versions
behave
asa
scope
carp
routinely
custom
fragmented
vale
engaged
##iana
manifested
asian
echo
collapse
constituent
##cycle
oro
fits
outlined
##yan
##points
engage
rob
##eria
ancestral
##hon
defenses
generations
industry
carries
relate
fifth
economic
generalized
viewed
##dent
##weight
173
brought
opportunities
binary
redistribution
govern
221
permanent
mutual
criterion
needle
≈
##ζ
projections
papers
##hat
tv
adjustment
rub
filtering
emotional
v6
threatening
searches
joints
stream
maze
dish
references
qc
passed
entering
1985
cage
spear
##sop
hey
##sch
mesh
indications
confluence
achieving
##erus
regulations
##ink
##tained
##hine
sad
##eck
vision
got
capacities
hypothetical
assist
uncertain
hill
africa
bed
trio
responds
##ude
##ality
bring
atop
ancient
##aur
interpret
dai
##keeping
##alle
##ee
rq
tone
raising
traditionally
resembling
weighted
totally
##ably
##lay
##ao
##cz
derive
releases
codes
mounting
combine
suspected
cid
##lier
contradictory
scans
##mium
dimensions
##gill
197
##ilo
##izations
thoroughly
##aria
335
favored
##eca
martin
spent
symmetry
covering
operate
north
answer
looking
programming
pierce
standardized
reacted
230
switches
empirical
##uid
##gu
##ians
##nst
bel
inferior
##max
harbour
##ama
cows
tonic
beck
reproduce
strengthen
taste
lacked
survey
mob
attract
son
##nine
insult
##enes
motivation
##uls
evade
jiang
mach
worm
##nical
vu
##ivated
modular
flanked
vulnerability
look
hint
preserve
counters
hemisphere
mole
186
language
cognition
##chia
facility
holds
##formed
inappropriate
##tel
sectional
disturbed
entered
##oke
movie
stu
tips
rhythms
guo
##tica
##iciencies
prepare
188
cooperation
instances
##pina
interactive
attracted
gus
shake
##vb
came
revised
##hol
exciting
horizontal
epidemic
searching
accommodate
expenditure
##sity
implementation
peaked
boundaries
losses
addiction
##osition
rounds
##anal
##onate
206
##nsis
interested
seizure
##ord
blank
cia
##sos
spines
child
##aba
##nan
##ias
chang
##pal
waters
##bel
asia
incorporating
los
daughter
750
structured
pointing
delays
hmm
nan
##ych
magnet
herbal
catalog
desirable
floral
hereditary
cigarette
##bat
anchorage
creates
traces
fuse
##iec
compensation
178
centered
inadequate
avoiding
replacing
looked
##ify
kat
objects
valve
##gne
slope
##tron
pulses
brass
##dam
##yre
argue
beam
clasp
eat
##ward
weekly
sharing
tens
stella
##dorf
##bilities
huge
return
replace
orbit
diaz
rhythmic
sid
rabbits
225
violet
entropy
dispersed
##field
favour
cup
preceding
foam
switched
permit
##ogo
ark
##umb
pulp
game
##vita
##ley
couple
ammonia
187
##tani
concepts
##ppa
stalk
varieties
encouraging
seasonal
disadvantage
encompassing
##sam
execution
pba
bart
##race
mao
fracture
##eve
traumatic
wounds
encountered
##tonic
focuses
lds
sit
##ored
equations
entities
adaptations
shuttle
japanese
179
repeatedly
mgm
##oat
possessing
reporters
brady
insults
utilizes
reflex
oyster
wasting
##izer
urgent
cue
inspection
vii
guinea
canada
fuel
surrounded
bot
swiss
##lz
pie
ate
docked
pilot
irregular
odds
vic
20s
serving
##0s
parents
##iable
##worm
edited
implied
900
##ryn
row
scientists
boxes
freely
heated
passages
##most
seminal
##raction
tends
stems
avoidance
mask
tracts
acceleration
penetrate
##gement
ari
facing
nak
lives
tooth
##vale
synonymous
##ji
constantly
detachment
author
##vill
evolve
clip
##elt
ensuring
reinforce
selecting
##enter
windows
ß
absorbed
mood
##ising
shortened
acted
dying
191
poses
##sation
draft
moved
##tically
saw
assignment
mango
damages
##ume
attach
##ela
##oss
177
advent
sandwich
##itt
##uce
twitch
211
mats
discarded
##ken
##oka
bundles
dj
##iography
doubling
popular
california
lid
society
possessed
##ythe
##coll
ancestor
ambient
caution
nonsense
hercules
##hor
birds
virtual
faces
184
##vel
night
##iza
verification
##zen
##stream
expose
quantum
psychological
mercury
dominated
##cton
careful
##xed
foe
flight
##raphy
east
iec
denoted
laps
rough
condensed
medicines
freeze
adoptive
drastic
radius
meaningful
closest
eliminating
emi
##athic
click
hearing
ensures
ibm
##num
episodes
##yi
bey
drivers
southern
employ
gan
exemplified
##istan
buds
expanding
yan
shifting
entries
barr
fin
barley
##anne
theoretically
presumed
coin
today
resides
repaired
contrasting
pace
stirred
##fly
tempting
kiss
perfect
##tch
grant
maximize
dairy
cores
##gil
218
pei
institutes
sheets
exhaust
opens
incorporate
##back
conservative
hazard
##media
film
demands
persisted
omega
##ches
viva
##encies
uh
tnt
uniformly
knee
wee
sediment
dev
intellectual
company
jp
exhaustion
##stand
##chal
successive
mosaic
##qi
sides
189
kw
naked
unidentified
tried
symmetric
jose
plug
emphasize
rai
213
authorized
inference
switzerland
motions
concentrate
translate
fide
eta
##arat
tis
sweet
4000
nova
lad
ski
masses
dots
flowers
addressing
trapping
##lite
ndp
versatile
closing
fidelity
numerical
##sari
##ioned
reliability
arranged
##die
paw
##mum
vacuum
wounding
sax
rex
innovative
intended
##ned
smart
compelling
##bers
##ops
noticeable
nickel
##bon
surf
developments
afforded
italy
##ick
survivors
##truct
dormant
sudden
debate
emphasized
proceed
thirty
conducting
neat
johnson
kingdom
pose
reportedly
danger
##mist
retains
dedicated
labor
##tti
considerations
portions
opened
undergone
##iii
backgrounds
charges
##wley
transmit
board
deterioration
margin
##gration
clues
##rkin
productivity
625
minus
wise
scales
##rium
filters
ally
occasionally
deal
gmbh
quick
humidity
pieces
assign
promo
dimension
relay
bench
publicly
accompanying
survived
emphasis
failing
moment
papa
encounter
advancement
swimming
diva
packed
##osh
madison
twelve
progressed
kyoto
intricate
proceeds
gift
216
simulate
##are
215
calf
##gis
shaking
##osed
##minated
duo
##bling
dei
fae
elf
provoke
234
primitive
zu
##oes
classify
nick
##stituting
##icides
##ental
slice
transit
garcia
endemic
chord
shan
distinguishing
consortium
224
aiming
cds
aqua
icc
presently
shortly
rescues
##ese
##bilis
##tip
html
suggestion
lava
projection
heads
##vision
graded
threat
distress
discharge
session
automatic
wilcox
##dication
perceived
communities
packing
algae
##ako
@
##fies
lining
borne
jin
till
digit
disappeared
barely
poles
silk
ρ
1980
coordinating
terminated
jia
superficial
jar
##ues
vertical
##anta
##rize
periodic
constrained
##imum
##ivo
pulled
298
india
cao
##kan
juvenile
mouth
tia
##chai
genera
″
209
##ctric
tang
##asurable
nz
##atter
ascribed
entrance
alongside
suited
grape
sho
firm
η
grand
217
##nched
barrel
setup
loads
expensive
governing
defines
shrink
feasibility
corporation
cited
232
ultimate
century
don
##via
φ
ou
##tter
ultraviolet
orthogonal
remote
prey
sophisticated
##cht
##ched
hope
whom
timely
207
##ez
##zin
256
multitude
aluminum
##ndo
configurations
1983
regards
1981
divers
##lace
relieve
calculating
giant
abuse
scenarios
person
flank
afterwards
domestic
##hem
θ
1500
market
##hit
520
rosa
formulated
1984
leader
##hell
tick
indices
bones
zipper
##sz
…
compensated
land
necessity
caucasian
##omp
compliance
quo
sai
sand
adjusting
lange
##ake
cones
254
netherlands
electric
convincing
disturbance
##uded
donkey
honey
##bble
buried
194
latest
##eon
##tracted
##yu
hampered
hidden
rendering
290
preferences
trajectory
convenient
ruled
##ructured
##gol
shen
##jm
330
monkeys
##cous
hall
exposing
helm
topological
enormous
##hei
offset
##sten
jones
preserving
mom
pine
synchronized
cats
##eme
trapped
offered
ethnic
existed
1200
##ump
michael
##lles
adolescents
##ssen
bulb
pockets
229
bee
broken
##eng
brazil
interior
zheng
##wg
supposed
college
slug
lau
vial
340
275
weakness
infused
merely
relating
deformation
divisions
##ching
vamp
nmi
##uin
tunic
wake
las
##zar
##print
storm
liv
salts
researches
straightforward
333
##illo
##gues
mets
agree
##inates
impossible
##bal
##plicity
##ville
##pins
specimen
validity
lai
rum
auxiliary
nme
ingredients
##kit
registered
##iki
##glio
ono
compositions
manipulate
spherical
zeta
##uram
rules
apple
excited
walker
skeleton
##iens
mount
thorough
gui
spaces
##rina
education
##eros
concurrently
halt
##test
diagram
detached
##xon
deeply
slap
supportive
probing
explanations
geometric
219
supervised
tropical
crest
##ska
blinded
sided
##ocation
##esian
progresses
198
australia
##amina
pali
monkey
##wd
##yana
##icide
mon
appetite
imported
##ease
##ision
tape
ζ
##zz
eleven
##oga
hua
simplified
operative
##upt
corp
scanned
wood
##tou
ultrasound
##ype
cole
##500
acceptable
fairly
preceded
##isi
creation
##ils
##body
lana
##olf
##rgh
##lth
mining
touch
##dot
##utation
226
coming
##dict
cooled
infrared
bending
chan
going
##iel
berg
perspectives
resolving
accelerating
##land
evolving
projects
automatically
##isa
##tell
cooling
sms
##bis
german
corpus
imposed
##gle
##gar
orr
##dina
wax
tuned
ball
276
facial
bear
establishes
##dos
ψ
cheng
aroma
decomposition
ranking
xiao
sparse
243
wil
##connected
##tek
auditory
hardly
##thermal
##pers
slowing
##yama
removes
miller
receiver
apex
locate
decisions
##date
##hila
enveloped
bulky
depended
invertebrates
vulgar
poisoning
bit
##ford
obstruction
devi
nora
##space
discoveries
##lav
##graphs
##jn
maxim
solve
reproduced
##riz
performs
wta
descending
observing
overcoming
orphan
elegant
browser
cope
kindly
comparatively
hunting
##rant
stil
consistency
beige
##oge
carbonate
chips
##aine
##pia
exported
dropped
exceeding
suv
permits
collision
records
##ffe
##loading
##bola
hatch
drafted
##uous
ewing
attacks
##erty
##ets
mirror
experiences
governed
funding
mort
266
bottle
deprived
grains
##train
river
experimentation
disk
##ɛ
scratch
##olved
##mara
##tral
seemingly
rendered
impacted
waste
admission
##nse
tablets
adjust
##mata
collecting
curated
vibration
##rill
appropriately
leave
##ulsion
monte
stretching
##urable
weighed
adds
nw
eating
turns
evans
##oration
##otti
##cen
restricting
numb
colour
nhs
##tling
gao
cum
##ggs
alfa
residing
##rail
colored
brings
coup
exceptions
annual
scarce
##rz
##cana
relates
vegetables
relatives
statement
wondered
occupy
nomenclature
toy
nanjing
you
chicago
##ß
buffalo
tunnel
hook
fragile
coded
smallest
representations
aerial
rising
unwanted
ease
##work
exceeded
rang
team
##gree
##eres
##bution
entity
rigorous
exceed
biochemistry
staging
mug
committed
##hey
oval
circle
vera
310
song
ley
stand
##ban
##cross
depressed
profoundly
236
tin
breaking
transferring
fulfill
remainder
##rata
angles
##ingen
martinez
241
arena
packaged
sexes
urgently
judged
##had
cutting
phi
draining
generic
triad
##idon
rei
##its
##band
265
##hop
recall
480
agricultural
##ats
ding
directing
##gui
##ply
england
vest
specify
##ij
##vet
##folia
360
delivering
divide
##pis
##logies
##wer
costa
##onia
##sus
##bee
##ery
volatile
frank
labels
680
##sson
citrus
dissolution
comet
##phile
peculiar
union
270
##backs
headache
sick
avoided
america
merged
dwarf
suffered
manufacturing
bouts
pressures
tremendous
heightened
##eding
cereal
exaggerated
##chen
301
hierarchy
gains
shapes
##inger
char
##zle
shoots
contrasts
masked
manga
moss
wilson
tempo
bill
shortest
rita
proficient
retaining
neil
eventual
regularly
demographic
progressing
##ient
nowadays
moe
realized
win
feb
principally
hands
suite
intermittent
slowed
yi
agrees
identities
sri
mana
radioactive
bend
missed
disappearance
ideally
##dan
persons
##lini
arbor
550
yin
##une
lister
amor
##naire
fertile
pulsed
metric
conception
##nese
choose
sts
##pur
##raine
##hum
650
##oides
ventilation
paths
##lta
##ante
244
boiled
liter
242
easier
steep
##tour
##rey
record
axial
disturb
##ego
appearing
##nte
227
collect
235
rhino
ryan
consolidation
darmstadt
roth
sliding
forty
manage
abd
##rite
abstract
scattered
chin
##uca
reel
##rca
mention
mechanically
##rand
underway
relief
##dock
##icated
combines
operates
##pore
##list
##nosis
forest
lamb
##graph
distinction
##ctions
hay
##zal
bell
repository
##lem
375
attributes
prominently
decorated
##wl
repetition
fischer
##icate
gil
capturing
bats
bonded
blu
##fed
pixel
hong
incident
avenues
##face
scanner
tangle
moves
declared
warm
cohen
logical
##ien
##cona
ready
weakened
737
relax
straight
##rica
capped
##kawa
rodriguez
##oza
##xes
crossover
rye
dept
##thor
filling
##mill
insignificant
kam
morning
restrictive
##ann
couples
##see
inhaled
##iform
beth
marko
grasp
oils
##fest
stall
chest
770
clara
##nberg
##iculate
epstein
silicon
flap
wallis
encyclopedia
php
huntington
##osphere
grey
rani
332
cryptic
problematic
grass
##rdan
reacts
assessments
##tie
learned
228
##bing
nearest
gently
reserve
nausea
sweden
##rva
wc
onion
instrumental
taiwan
proposal
##ock
potato
##ced
designs
ascending
incompatible
##rier
bark
gig
##ø
253
passing
alternatives
subdivided
feng
denmark
footprint
308
##zon
cree
##hus
prescribed
##vil
cite
substitute
bari
spotted
chick
1982
##mani
##rai
convergence
^
adequately
myriad
ava
law
averaging
shaping
lowers
competes
singh
##xious
antenna
##group
goals
instruction
405
payload
##itz
breakthrough
names
suicide
argued
shin
grades
##aging
situated
collaboration
mildly
ron
alf
tracks
paste
##iness
strengths
contaminated
dickinson
graphs
gill
arose
concerned
tracing
##sky
gaa
bradford
messengers
scramble
prototype
2500
motors
##fan
inn
prompt
pictures
reactivated
adjunct
math
stay
ale
sound
490
repeating
choi
hole
spikes
truly
assumptions
233
drops
twin
ui
holding
symmetrical
bae
vortex
##hedral
##ilised
april
elevations
##hane
harm
324
controversy
separating
devastating
updated
##ashi
tq
berber
tale
viii
attribute
semantic
fund
252
proceeded
attain
morris
cdp
##cating
contributors
reconstructed
coulter
begun
transporting
absolutely
239
pharmaceuticals
fill
limbs
undoubtedly
dioxide
##eed
guard
season
pumping
##cola
harvest
relations
suzuki
420
exceeds
manipulated
maybe
hybrids
labs
##nen
manipulating
crystalline
cape
chronological
resembled
316
pau
aren
anderson
perfectly
##itating
berries
aside
hon
scalp
##lman
##ures
lina
maturity
nonlinear
usual
happens
weaken
winter
mae
invariant
circles
darkness
billion
teeth
245
expense
wes
##ily
longest
cages
248
##uchi
60s
extensions
##feld
##gor
##rret
hbo
##zan
participant
province
rack
337
shrimp
##tting
tailored
##resh
##bry
##ika
##lad
pausing
outputs
wavelengths
conflicts
len
##omorphic
gaining
##nden
overs
temporary
mbc
grouping
##−1
##zos
##rous
370
york
orchestrated
##wal
##tist
obscure
benjamin
rolling
sixth
residence
##guchi
##scent
##inge
##chet
panic
legion
##nza
##bala
explicit
##∗
##hara
sharply
bred
##cco
$
##gata
lenses
##isk
##hering
squares
placement
ramp
favourable
##ung
##θ
speculation
wen
6000
##hardt
pastor
falls
lcd
auf
##core
unprecedented
orbital
lobes
orient
261
##lative
crosses
295
331
confinement
encompasses
##oj
##uously
helsinki
tian
depot
kang
explicitly
habit
accessed
browning
fight
agitation
rash
boots
dal
##bber
nhl
bach
thanks
nee
incoming
wine
think
590
producer
##hong
##uno
awareness
spheres
instant
historically
sheath
professional
1979
##pipe
coherent
destroy
##ult
learn
neighbor
##jack
unsuccessful
kumar
raj
##chu
wish
##ometer
##lene
london
##zhi
aggravated
appreciated
##dial
##bach
davis
omnibus
scaling
accord
zoo
##wn
ken
readers
seeking
rebound
277
cub
excel
##edance
skills
bold
train
##asse
##tori
saga
##wing
lia
##jk
##yad
1978
reflection
435
scaled
##qual
connects
syntax
doping
jagged
##isse
##dini
292
yuan
tex
##lves
##imating
declaration
303
1975
said
##cker
spain
strengthening
##shin
simplicity
provoked
##centric
avenue
movies
elm
##hein
niger
251
mars
analogy
##oned
sensation
organizing
recognised
eligible
fis
chase
recommend
263
exhausted
##plify
constituted
quadrant
places
##shing
257
##umatic
##eum
collateral
##coe
pollution
273
451
harness
poultry
##fle
interruption
lew
##rmi
##udes
dom
ska
client
distortion
##mbo
transverse
intersection
originates
relaxed
transfers
##cide
website
erosion
##ition
##sw
##itation
purple
decor
evenly
##heads
definite
##dae
##≤
ecological
approximation
pixels
##tium
##qa
faa
##rily
consume
##kow
##uj
declines
##icus
##neck
mart
##kur
##asco
placing
271
##hia
piece
##σ
##rie
endurance
##lous
schedule
vox
255
gentle
##iac
##aka
##chon
tongue
stretches
296
##ference
##rsa
minority
495
##coat
##aris
sustaining
transportation
##ngo
meeting
##rian
##sty
†
reset
##dling
coincided
surge
impressive
housing
incapable
hats
girls
##tiv
reinforced
emergency
spring
sui
ancestry
317
dallas
arbitrary
ethnicity
extinction
peanut
obstacle
densely
coral
fingers
modelled
crescent
##awa
delaying
##cape
##tail
drying
academy
lambda
distinctly
realistic
amazon
computing
stacks
marc
##ulent
##gum
ban
stats
visually
inversion
hospitalized
industries
##uto
photographed
expectation
gonzalez
document
atmospheric
##minate
sure
inca
phosphorus
sis
238
262
##elled
##lev
##lined
pulling
246
pursued
serra
herbs
say
##alis
reverted
cement
request
aware
lever
displaced
indian
sbs
##wil
##hang
applies
evidently
strengthened
313
meyer
operator
reservoirs
producers
wan
socio
uncertainty
segregated
285
directs
##dles
spiral
chat
##till
lass
inherently
##nov
sessions
press
##onte
##vn
neighbouring
249
snaps
##atus
##tad
##ok
hairy
sao
cough
##page
uncommon
##nds
emerges
perpendicular
380
service
graphical
habits
proxy
convey
##dry
newer
510
interpreting
fifty
##ested
motivated
dong
attained
emphasizes
282
offering
restart
somehow
lex
durable
##lich
illustrating
tons
harvesting
##lga
catch
traps
authentic
lock
yer
helping
berry
fei
##orn
sequel
bull
noticeably
ɛ
##gative
went
##ller
acquiring
suit
##fted
##rized
##erated
planned
unconventional
505
mechanics
imperative
cobalt
237
satisfactory
snake
relied
##wai
reacting
lang
williams
##dicate
artifacts
irrelevant
365
bulge
spaced
##yer
##ively
##ssion
##view
##urg
##moral
tolerate
emphasizing
mage
minneapolis
enamel
xx
ict
chew
imperfect
questioned
tread
transformations
sing
belonged
services
##λ
script
universally
clearing
pacific
scrap
##lda
##cene
259
##eda
salvage
canal
schemes
titanium
##uber
isa
immersion
parallels
epsilon
570
continuing
trek
locked
doing
##lal
paid
fun
permitted
technological
incorrect
experiencing
axes
wounded
adams
##gging
taylor
##dies
calling
fundamentally
tai
restraint
nov
tug
veterinary
views
kun
vinyl
infancy
turning
millions
alternating
centrally
impose
metallic
##sea
emotion
accomplish
await
reasonably
mediation
curved
farm
##sei
courses
##ail
layered
items
deemed
302
pits
identifiable
drift
outstanding
##scan
restrained
sato
rays
subsp
##nche
fractures
descriptions
interfered
##tery
immersed
##tern
argues
esa
casa
homer
spreads
congo
peach
elaborate
ton
##optera
priority
guiding
unnecessary
agreed
ist
breadth
computation
fell
##ulsive
americans
ross
##mora
##maker
beside
1st
##wed
jung
deposit
natal
##amen
cass
invaded
##oses
subjective
solar
##cave
##dor
ensembles
harris
##ductive
executed
balloon
brasil
approx
defensive
founder
programme
genesis
pepsi
beer
##kov
employs
autopsy
isn
revision
discovering
##holder
calls
penetrating
affiliated
##efe
correspondence
##iko
spans
picked
compute
322
restraints
kato
chilling
ambiguous
vomiting
##bbing
stern
independence
##chang
##tian
december
##erate
finely
occasional
bears
administering
##ances
##uting
equipment
##eran
##rona
tao
##oint
assimilation
intimately
repairing
ladder
yes
##zman
proposes
thomas
encompass
##dder
##pw
##uil
paz
sash
loose
january
630
410
engages
theories
##efined
##ssel
iteration
bass
schmidt
neighbors
740
ito
simplest
doubt
debated
##cki
renew
caste
mls
poised
##ffa
##lizer
##kam
sexually
##wski
1990s
tanaka
lopez
nominal
annually
depicts
referring
occupies
247
shade
licensed
virtue
collaborators
##over
weiss
ensured
floating
dunne
stands
formally
##mei
compression
quasi
facts
polo
##imated
remy
shallow
1977
##nko
##rst
##nne
french
standing
stone
surprise
mandatory
##ieg
alarm
stirring
##zee
vehicles
discontinued
weighing
mediterranean
wit
coarse
silva
denotes
paul
franklin
##cens
##wald
competitor
540
liang
spray
rotor
sensed
managed
325
assumes
flora
climate
258
loud
##ω
oz
dominance
engaging
##eded
aquatic
borders
##oit
##pio
goes
faithful
neglected
june
claims
##kai
##lean
omitted
ensuing
fcc
##nology
##nir
##tres
texas
relieved
338
tracked
##mme
##rda
practices
freedom
sealed
460
gordon
expands
##vot
guest
arrangements
steadily
##dron
viper
425
##ight
##fine
##tock
##mined
##ings
elemental
##hale
tko
exchanged
basically
execute
dion
formerly
##edd
comprehension
ideas
transparent
painful
##fia
##iving
##grin
##urs
films
introduces
mantle
##kas
##urn
skipping
eden
mirrored
manson
qb
##hul
##unt
camel
dams
assignments
rotational
##mise
relocation
##copic
##lore
##lass
agency
acknowledged
destructive
eras
lasted
send
##eral
outline
##ologists
fifteen
yd
john
thousand
##emon
atlantic
279
elmer
taxonomic
##hli
clocks
blasts
claimed
kernel
strata
##promising
submerged
##erry
seek
arguing
purely
obstacles
stool
gun
sent
earth
really
advancing
marco
olive
argument
proving
314
organisation
##rde
##hed
restrain
##uga
##rah
281
286
council
compiled
wealth
trade
gets
happen
269
311
arousal
##region
eclipse
bringing
##low
mortal
cool
osaka
extras
verb
dust
lexi
compatibility
stocks
ample
supervision
guarantee
##chs
abu
relying
reasoning
##zhou
copa
jd
episode
##hoe
squared
licensing
##onis
ending
sant
crush
stark
tran
315
preserves
worked
mobilized
matt
267
companies
message
##bai
melt
transmitting
gambia
diamond
rust
veins
occupational
##aus
1976
283
##tsu
boo
artifact
dispersal
collapsed
##nant
stein
##roup
yao
##mbled
##reen
traction
rods
##una
##ske
trimmed
##enberg
examinations
breath
278
##uch
##ied
530
tong
revolution
balancing
adjustments
costly
mentioning
##rar
peng
korean
##iger
mara
encouraged
284
failures
adolescent
780
##tized
methane
erase
aura
notwithstanding
juice
takahashi
##iya
bsc
fourier
coal
paralysis
feeder
averages
##ove
hum
cory
cannabis
dahl
update
enforced
fates
##oped
boston