{"[PAD]": 0, "[UNK]": 100, "[CLS]": 101, "[SEP]": 102, "[MASK]": 103, "[unused1]": 2, "[unused2]": 3, "[unused3]": 4, "[unused4]": 5, "[unused5]": 6, "[unused6]": 7, "[unused7]": 8, "[unused8]": 9, "[unused9]": 10, ",": 1010, ".": 1012, "the": 1996, "of": 1997, "-": 1011, "and": 1998, "in": 1999, ")": 1007, "(": 1006, "to": 2000, "a": 1037, "##s": 2015, "with": 2007, "that": 2008, "is": 2003, "for": 2005, "]": 1033, "[": 1031, "by": 2011, "as": 2004, "##1": 2487, "was": 2001, "cells": 4442, "1": 1015, "were": 2020, "/": 1013, "##2": 2475, "##c": 2278, "are": 2024, "on": 2006, "at": 2012, "2": 1016, "we": 2057, "this": 2023, "or": 2030, "##p": 2361, "al": 2632, "##b": 2497, "cell": 3526, "et": 3802, "from": 2013, "be": 2022, "##3": 2509, "p": 1052, "g": 1043, "##a": 2050, "an": 2019, "expression": 3670, "##l": 2140, "h": 1044, "##d": 2094, "##r": 2099, "3": 1017, "##f": 2546, ";": 1025, "which": 2029, "these": 2122, "5": 1019, "##t": 2102, "not": 2025, "t": 1056, "s": 1055, "##n": 2078, "##k": 2243, "ph": 6887, "##e": 2063, "fig": 20965, "protein": 5250, "also": 2036, "have": 2031, "##ly": 2135, "figure": 3275, "##in": 2378, "4": 1018, "##m": 2213, "0": 1014, "%": 1003, "e": 1041, "it": 2009, "l": 1048, "c": 1039, "\u2013": 1516, "##4": 2549, "been": 2042, "##g": 2290, "has": 2038, "##ph": 8458, "b": 1038, "cy": 22330, "6": 1020, ":": 1024, "##os": 2891, "##x": 2595, "can": 2064, "d": 1040, "##op": 7361, "##al": 2389, "using": 2478, "binding": 8031, "genes": 9165, "levels": 3798, "between": 2090, "pro": 4013, "may": 2089, "##6": 2575, "n": 1050, "activity": 4023, "##ation": 3370, "proteins": 8171, "all": 2035, "cancer": 4456, "gene": 4962, "both": 2119, "##v": 2615, "anti": 3424, "study": 2817, "##7": 2581, "i": 1045, "but": 2021, "##ing": 2075, "##h": 2232, "10": 2184, "data": 2951, "co": 2522, "mice": 12328, "other": 2060, "##te": 2618, "cd": 3729, "activation": 13791, "##9": 2683, "after": 2044, "##5": 2629, "dna": 6064, "results": 3463, "7": 1021, "induced": 10572, "##re": 2890, "##8": 2620, "patients": 5022, "its": 2049, "our": 2256, "such": 2107, "however": 2174, "studies": 2913, "increased": 3445, "treatment": 3949, "used": 2109, "two": 2048, "##ic": 2594, "##i": 2072, "f": 1042, "their": 2037, "shown": 3491, "role": 2535, "found": 2179, "ne": 11265, "specific": 3563, "ap": 9706, "r": 1054, "##to": 3406, "effect": 3466, "##o": 2080, "than": 2084, "##ine": 3170, "associated": 3378, "analysis": 4106, "=": 1027, "##ed": 2098, "observed": 5159, "\u2010": 1513, "trans": 9099, "bio": 16012, "end": 2203, "more": 2062, "no": 2053, "human": 2529, "8": 1022, "into": 2046, "signaling": 14828, "different": 2367, "##ory": 10253, "mir": 14719, "up": 2039, "##pha": 21890, "tumor": 13656, "compared": 4102, "##gf": 25708, "il": 6335, "showed": 3662, "##y": 2100, "##tion": 3508, "high": 2152, "response": 3433, "transcription": 14193, "o": 1051, "k": 1047, "im": 10047, "could": 2071, "##0": 2692, "during": 2076, "effects": 3896, "well": 2092, "##se": 3366, "control": 2491, "##nt": 3372, "one": 2028, "rna": 12987, "only": 2069, "##lation": 13490, "ep": 4958, "##tic": 4588, "through": 2083, "significantly": 6022, "micro": 12702, "##ion": 3258, "pathway": 12732, "he": 2002, "non": 2512, "over": 2058, "function": 3853, "further": 2582, "w": 1059, "##es": 2229, "##mun": 23041, "my": 2026, "type": 2828, "##or": 2953, "per": 2566, "\u03b2": 1156, "##er": 2121, "when": 2043, "ex": 4654, "group": 2177, "##cl": 20464, "including": 2164, "inhibit": 26402, "re": 2128, "de": 2139, "##ma": 2863, "mm": 3461, "er": 9413, "most": 2087, "receptor": 10769, "##ox": 11636, "##sis": 6190, "significant": 3278, "9": 1023, "growth": 3930, "m": 1049, "dependent": 7790, "reported": 2988, "##na": 2532, "thus": 2947, "complex": 3375, "increase": 3623, "##gul": 24848, "ch": 10381, "##ated": 4383, "while": 2096, "##ida": 8524, "model": 2944, "important": 2590, "development": 2458, "addition": 2804, "##gen": 6914, "act": 2552, "methyl": 25003, "level": 2504, "there": 2045, "if": 2065, "\u03b1": 1155, "##me": 4168, "ca": 6187, "mediated": 19872, "##rom": 21716, "based": 2241, "time": 2051, "similar": 2714, "pre": 3653, "involved": 2920, "pc": 7473, "+": 1009, "ad": 4748, "\u03bc": 1166, "disease": 4295, "##lu": 7630, "##on": 2239, "potential": 4022, "20": 2322, "reduced": 4359, "##mo": 5302, "##tosis": 25950, "factor": 5387, "via": 3081, "mrna": 28848, "identified": 4453, "table": 2795, "higher": 3020, "acid": 5648, "related": 3141, "regulation": 7816, "several": 2195, "number": 2193, "target": 4539, "stress": 6911, "##cellular": 16882, "##eno": 16515, "ass": 4632, "v": 1058, "first": 2034, "each": 2169, "therefore": 3568, "##oc": 10085, "di": 4487, "meta": 18804, "sp": 11867, "expressed": 5228, "12": 2260, "treated": 5845, "##ization": 3989, "\u2019": 1521, "con": 9530, "under": 2104, "domain": 5884, "three": 2093, "membrane": 10804, "sc": 8040, "system": 2291, "inhibition": 23586, "changes": 3431, "performed": 2864, "un": 4895, "##ase": 11022, "##ct": 6593, "##id": 3593, "factors": 5876, "inhibitor": 24054, "##ted": 3064, "tr": 19817, "kinase": 21903, "immune": 11311, "they": 2027, "mu": 14163, "ml": 19875, "##\u03b2": 29720, "##q": 4160, "although": 2348, "##cs": 6169, "low": 2659, "clinical": 6612, "lip": 5423, "inflammatory": 20187, "demonstrated": 7645, "fi": 10882, "present": 2556, "##co": 3597, "##cle": 14321, "tissue": 8153, "due": 2349, "formation": 4195, "u": 1057, "##cy": 5666, "##\u03b1": 14608, "pathways": 16910, "st": 2358, "##ol": 4747, "15": 2321, "##ome": 8462, "cr": 13675, "<": 1026, "##ys": 7274, "then": 2059, "ox": 23060, "some": 2070, "interaction": 8290, "molecular": 8382, "pd": 22851, "infection": 8985, "cl": 18856, "known": 2124, "24": 2484, "within": 2306, "x": 1060, "production": 2537, "30": 2382, "##oth": 14573, "##ne": 2638, "had": 2018, "##ous": 3560, "induce": 19653, "mechanisms": 10595, "poly": 26572, "presence": 3739, "intra": 26721, "cellular": 12562, "normal": 3671, "##yp": 22571, "##le": 2571, "mechanism": 7337, "like": 2066, "down": 2091, "th": 16215, "##us": 2271, "auto": 8285, "whether": 3251, "sub": 4942, "##ns": 3619, "decreased": 10548, "##elial": 24587, "##uro": 10976, "os": 9808, "pl": 20228, "cat": 4937, "functional": 8360, "##las": 8523, "me": 2033, "proliferation": 20250, "##ex": 10288, "##type": 13874, "site": 2609, "his": 2010, "mono": 18847, "nm": 13221, "did": 2106, "##ity": 3012, "mg": 11460, "previously": 3130, "macro": 26632, "respectively": 4414, "conditions": 3785, "##is": 2483, "hc": 16731, "inc": 4297, "vitro": 25714, "supplementary": 26215, "so": 2061, "ve": 2310, "##yl": 8516, "pi": 14255, "en": 4372, "car": 2482, "50": 2753, "##po": 6873, "##ized": 3550, "mutant": 15527, "structure": 3252, "regulated": 12222, "ii": 2462, "##uc": 14194, "activated": 8878, "min": 8117, "25": 2423, "sequence": 5537, "##de": 3207, "peptide": 25117, "sites": 4573, "against": 2114, "vivo": 24269, "mouse": 8000, "11": 2340, "##cytes": 27321, "nu": 16371, "positive": 3893, "##ogen": 23924, "##tive": 6024, "##oso": 19137, "hyper": 23760, "many": 2116, "suggest": 6592, "\u2032": 1531, "mit": 10210, "hs": 26236, "##mic": 7712, "##tra": 6494, "same": 2168, "described": 2649, "z": 1062, "samples": 8168, "##10": 10790, "##pt": 13876, "##tok": 18715, "might": 2453, "following": 2206, "##rs": 2869, "##ia": 2401, "100": 2531, "##ry": 2854, "16": 2385, "receptors": 13833, "##pa": 4502, "region": 2555, "do": 2079, "mt": 11047, "ra": 10958, "##ps": 4523, "##ci": 6895, "culture": 3226, "##ti": 3775, "containing": 4820, "##ar": 2906, "revealed": 3936, "ar": 12098, "##ap": 9331, "##lo": 4135, "rec": 28667, "hydro": 18479, "show": 2265, "previous": 3025, "##ym": 24335, "13": 2410, "media": 2865, "because": 2138, "single": 2309, "post": 2695, "##as": 3022, "differentiation": 20582, "interactions": 10266, "process": 2832, "lines": 3210, "genome": 13458, "18": 2324, "experiments": 7885, "##rna": 12789, "those": 2216, "14": 2403, "##ay": 4710, "secret": 3595, "##atin": 20363, "17": 2459, "form": 2433, "groups": 2967, "ci": 25022, "##z": 2480, "##um": 2819, "brain": 4167, "##53": 22275, "liver": 11290, "##tin": 7629, "suggesting": 9104, "test": 3231, "either": 2593, "survival": 7691, "##11": 14526, "##yla": 23943, "lower": 2896, "pathogen": 26835, "total": 2561, "##la": 2721, "early": 2220, "local": 2334, "small": 2235, "##fect": 25969, "##pl": 24759, "concentration": 6693, "##ac": 6305, "loss": 3279, "##ty": 3723, "syn": 19962, "promoter": 15543, "various": 2536, "19": 2539, "mutations": 14494, "blood": 2668, "required": 3223, "cc": 10507, "whereas": 6168, "surface": 3302, "##mi": 4328, "##xi": 9048, "pp": 4903, "gen": 8991, "##top": 14399, "active": 3161, "tissues": 14095, "detected": 11156, "amino": 13096, "multiple": 3674, "responses": 10960, "furthermore": 7297, "resistance": 5012, "##uba": 19761, "evidence": 3350, "ec": 14925, "y": 1061, "functions": 4972, "family": 2155, "among": 2426, "si": 9033, "j": 1046, "se": 7367, "drug": 4319, "##tro": 13181, "use": 2224, "##ges": 8449, "antibody": 27781, "new": 2047, "el": 3449, "iso": 11163, "ir": 20868, "moreover": 9308, "nuclear": 4517, "ligand": 27854, "fa": 6904, "out": 2041, "molecules": 10737, "\u201d": 1524, "models": 4275, "rep": 16360, "##hy": 10536, "ro": 20996, "\u201c": 1523, "homo": 24004, "inter": 6970, "residues": 22644, "tn": 28286, "mc": 11338, "na": 6583, "ak": 17712, "le": 3393, "contrast": 5688, "##en": 2368, "findings": 9556, "\u00b1": 1081, "highly": 3811, "ace": 9078, "where": 2073, "##12": 12521, "neurons": 15698, "q": 1053, "21": 2538, "'": 1005, "interesting": 5875, "since": 2144, "therapeutic": 17261, "te": 8915, "wild": 3748, "##io": 3695, "derived": 5173, "will": 2097, "ms": 5796, "signal": 4742, "##u": 2226, "transcript": 24051, "primary": 3078, "rate": 3446, "mitochondrial": 23079, "ce": 8292, "##cc": 9468, "result": 2765, "phase": 4403, "cas": 25222, "##ero": 10624, "additional": 3176, "fold": 10671, "##genic": 16505, "recent": 3522, "mod": 16913, "##fl": 10258, "obtained": 4663, "sm": 15488, "cycle": 5402, "major": 2350, "##genesis": 23737, "terminal": 5536, "would": 2052, "37": 4261, "##press": 20110, "negative": 4997, "bc": 4647, "ser": 14262, "40": 2871, "##bro": 12618, "consistent": 8335, "##osi": 20049, "##nas": 11649, "regions": 4655, "##rop": 18981, "species": 2427, "##sta": 9153, "##fp": 22540, "##pas": 19707, "differences": 5966, "serum": 20194, "int": 20014, "ac": 9353, "inflammation": 21733, "##pro": 21572, "antibodies": 22931, "##igen": 29206, "che": 18178, "flu": 19857, "viral": 13434, "22": 2570, "here": 2182, "induction": 15946, "##sc": 11020, "upon": 2588, "virus": 7865, "##ce": 3401, "damage": 4053, "any": 2151, "##ith": 8939, "concentrations": 14061, "death": 2331, "##ting": 3436, "ct": 14931, "##bi": 5638, "05": 5709, "glucose": 18423, "##ta": 2696, "possible": 2825, "line": 2240, "muscle": 6740, "inhibitors": 25456, "##cos": 13186, "##ines": 10586, "progression": 14967, "release": 2713, "breast": 7388, "recently": 3728, "md": 9108, "##lr": 20974, "metabolism": 18089, "decrease": 9885, "ability": 3754, "gs": 28177, "##ers": 2545, "plasma": 12123, "##ca": 3540, "amp": 23713, "##lot": 10994, "lung": 11192, "without": 2302, "reduction": 7312, "##esis": 19009, "large": 2312, "cp": 18133, "##her": 5886, "##cr": 26775, "##ge": 3351, "ni": 9152, "pt": 13866, "23": 2603, "likely": 3497, "biological": 6897, "tc": 22975, "analyzed": 16578, "key": 3145, "state": 2110, "determined": 4340, "suggested": 4081, "processes": 6194, "types": 4127, "synthesis": 10752, "het": 21770, "##les": 4244, "ga": 11721, "##am": 3286, "48": 4466, "##bla": 28522, "together": 2362, "activate": 20544, "dc": 5887, "even": 2130, "long": 2146, "##13": 17134, "tumors": 21434, "cs": 20116, "suppress": 16081, "sir": 2909, "##tos": 13122, "cho": 16480, "genetic": 7403, "risk": 3891, "ps": 8827, "atp": 12649, "stat": 28093, "##lated": 13776, "##ro": 3217, "tri": 13012, "##ga": 3654, "transport": 3665, "extra": 4469, "experimental": 6388, "therapy": 7242, "regulatory": 10738, "directly": 3495, "pr": 10975, "diseases": 7870, "novel": 3117, "another": 2178, "less": 2625, "interact": 11835, "host": 3677, "migration": 9230, "##14": 16932, "ab": 11113, "subunit": 24312, "independent": 2981, "indicated": 5393, "##rc": 11890, "pu": 16405, "enhanced": 9412, "example": 2742, "absence": 6438, "mutation": 16221, "map": 4949, "lp": 6948, "\u00b0c": 6362, "##rm": 10867, "##gg": 13871, "va": 12436, "##fa": 7011, "enhance": 11598, "very": 2200, "##ba": 3676, "play": 2377, "del": 3972, "free": 2489, "exposure": 7524, "dose": 13004, "##mal": 9067, "28": 2654, "infected": 10372, "\u03b4": 1158, "usa": 3915, "##rin": 6657, "age": 2287, "##qui": 15549, "measured": 7594, "targets": 7889, "##cin": 15459, "sh": 14021, "confirmed": 4484, "mo": 9587, "##cal": 9289, "essential": 6827, "days": 2420, "##ive": 3512, "br": 7987, "enzyme": 9007, "metabolic": 21453, "ha": 5292, "antigen": 28873, "##uron": 21017, "dr": 2852, "compounds": 10099, "degradation": 16627, "sequences": 10071, "##ob": 16429, "##age": 4270, "##ra": 2527, "##ri": 3089, "indicating": 8131, "research": 2470, "insulin": 22597, "determine": 5646, "sr": 5034, "26": 2656, "values": 5300, "##ch": 2818, "##da": 2850, "##st": 3367, "27": 2676, "does": 2515, "stimulation": 20858, "bi": 12170, "##gy": 6292, "##ria": 4360, "##21": 17465, "go": 2175, "investigated": 10847, "leading": 2877, "day": 2154, "hp": 6522, "ol": 19330, "embryo": 28086, "60": 3438, "bound": 5391, "rats": 11432, "stem": 7872, "##np": 16275, "four": 2176, "multi": 4800, "fe": 10768, "##xy": 18037, "hem": 19610, "change": 2689, "set": 2275, "col": 8902, "expressing": 14026, "35": 3486, "mutants": 23892, "resulting": 4525, "provide": 3073, "##omic": 22026, "29": 2756, "suggests": 6083, "mel": 11463, "combination": 5257, "\u2212": 1597, "##ato": 10610, "common": 2691, "association": 2523, "\u00b5": 1085, "##eti": 20624, "accumulation": 20299, "examined": 8920, "red": 2417, "ang": 17076, "##ide": 5178, "regulate": 15176, "critical": 4187, "##etic": 16530, "indicate": 5769, "34": 4090, "##yt": 22123, "structures": 5090, "##mp": 8737, "direct": 3622, "##lic": 10415, "\u03ba": 1164, "adi": 27133, "##ts": 3215, "##ate": 3686, "plate": 5127, "controls": 7711, "am": 2572, "ba": 8670, "##ho": 6806, "see": 2156, "##orescence": 20030, "order": 2344, "##tone": 5524, "animals": 4176, "differential": 11658, "vs": 5443, "targeting": 14126, "bind": 14187, "##cino": 21081, "su": 10514, "tested": 7718, "36": 4029, "##16": 16048, "knock": 7324, "##15": 16068, "domains": 13100, "pg": 18720, "##otide": 26601, "stage": 2754, "medium": 5396, "replication": 21647, "according": 2429, "cases": 3572, "affinity": 16730, "being": 2108, "structural": 8332, "how": 2129, "hd": 10751, "vi": 6819, "da": 4830, "##om": 5358, "caused": 3303, "method": 4118, "bone": 5923, "case": 2553, "about": 2055, "above": 2682, "##j": 3501, "ag": 12943, "affect": 7461, "##ms": 5244, "should": 2323, "nc": 13316, "able": 2583, "fl": 13109, "##sy": 6508, "considered": 2641, "size": 2946, "33": 3943, "32": 3590, "##tes": 4570, "properties": 5144, "conform": 23758, "increases": 7457, "ns": 24978, "range": 2846, "##gs": 5620, "##w": 2860, "buffer": 17698, "##sp": 13102, "pa": 6643, "es": 9686, "still": 2145, "ho": 7570, "stain": 21101, "cm": 4642, "current": 2783, "enzymes": 16285, "before": 2077, "##pe": 5051, "##ter": 3334, "reaction": 4668, "2013": 2286, "##ocytes": 28788, "complexes": 15420, "acids": 12737, "##ot": 4140, "##tea": 27058, "hi": 7632, "##ses": 8583, "##fi": 8873, "met": 2777, "000": 2199, "second": 2117, "injury": 4544, "followed": 2628, ">": 1028, "pm": 7610, "correlation": 16902, "characterized": 7356, "##ip": 11514, "2012": 2262, "01": 5890, "difference": 4489, "conserved": 19995, "relative": 5816, "chronic": 11888, "ge": 16216, "body": 2303, "##th": 2705, "31": 2861, "##tina": 13770, "##20": 11387, "##osis": 12650, "##oca": 24755, "translation": 5449, "tu": 10722, "components": 6177, "_": 1035, "next": 2279, "##cer": 17119, "nr": 17212, "##osta": 28696, "##ally": 3973, "em": 7861, "##yo": 7677, "##ano": 6761, "approach": 3921, "2011": 2249, "downstream": 13248, "##li": 3669, "##sen": 5054, "analyses": 16478, "pan": 6090, "resulted": 4504, "cause": 3426, "overall": 3452, "value": 3643, "part": 2112, "gp": 14246, "##ini": 5498, "substrate": 16305, "available": 2800, "given": 2445, "identify": 6709, "isolated": 7275, "##mes": 7834, "leads": 5260, "##ib": 12322, "roles": 4395, "lead": 2599, "increasing": 4852, "##ivity": 7730, "generated": 7013, "##ea": 5243, "##och": 11663, "##hi": 4048, "plays": 3248, "path": 4130, "energy": 2943, "linked": 5799, "drugs": 5850, "length": 3091, "strain": 10178, "work": 2147, "##no": 3630, "38": 4229, "##bs": 5910, "2014": 2297, "ty": 5939, "##eg": 13910, "##ment": 3672, "contribute": 9002, "ds": 16233, "##tor": 4263, "##fs": 10343, "light": 2422, "least": 2560, "##zy": 9096, "##ju": 9103, "##ha": 3270, "43": 4724, "45": 3429, "##rp": 14536, "1a": 20720, "ic": 24582, "2010": 2230, "##ays": 22916, "##of": 11253, "fraction": 12884, "animal": 4111, "effective": 4621, "information": 2592, "\u03b3": 1157, "##27": 22907, "sd": 17371, "cross": 2892, "##im": 5714, "molecule": 13922, "##rti": 28228, "##hil": 19466, "##down": 7698, "##zo": 6844, "##ino": 5740, "manner": 5450, "##et": 3388, "produced": 2550, "##eni": 18595, "ma": 5003, "dia": 22939, "promote": 5326, "def": 13366, "##pc": 15042, "indeed": 5262, "##bina": 21114, "pe": 21877, "##log": 21197, "##dr": 13626, "##logical": 9966, "##oma": 9626, "2a": 23409, "\u00d7": 1095, "##fer": 7512, "gr": 24665, "res": 24501, "ts": 24529, "methods": 4725, "##sti": 16643, "ip": 12997, "##yr": 12541, "##ological": 10091, "##17": 16576, "##rot": 21709, "shows": 3065, "##a1": 27717, "specifically": 4919, "them": 2068, "##ize": 4697, "2009": 2268, "binds": 20817, "nano": 28991, "39": 4464, "ago": 3283, "distinct": 5664, "##osomal": 27642, "##igo": 14031, "##one": 5643, "lo": 8840, "42": 4413, "ratio": 6463, "systems": 3001, "##38": 22025, "lc": 29215, "cu": 12731, "studied": 3273, "gas": 3806, "2015": 2325, "ta": 11937, "##ens": 6132, "##ant": 4630, "us": 2149, "##19": 16147, "elevated": 8319, "responsible": 3625, "##hyl": 29598, "rt": 19387, "##bility": 8553, "years": 2086, "##ons": 5644, "##gc": 18195, "hiv": 9820, "##mb": 14905, "##form": 14192, "western": 2530, "##18": 15136, "strong": 2844, "remains": 3464, "rib": 19395, "##gno": 26745, "##bol": 14956, "aden": 16298, "action": 2895, "##hesion": 21471, "super": 3565, "developed": 2764, "plant": 3269, "np": 27937, "bp": 17531, "signals": 7755, "cn": 27166, "nk": 25930, "##ad": 4215, "sensitivity": 14639, "##rine": 11467, "statistical": 7778, "##ond": 15422, "den": 7939, "water": 2300, "network": 2897, "##mer": 5017, "##at": 4017, "pattern": 5418, "chain": 4677, "population": 2313, "##ten": 6528, "affected": 5360, "bacterial": 17341, "##ative": 8082, "mass": 3742, "##len": 7770, "1b": 26314, "##\u00b0": 7737, "##ut": 4904, "##act": 18908, "##af": 10354, "alone": 2894, "sample": 7099, "markers": 16387, "rb": 21144, "temperature": 4860, "##oh": 11631, "ko": 12849, "cb": 17324, "particular": 3327, "invasion": 5274, "strains": 18859, "aa": 9779, "patient": 5776, "regulating": 21575, "##able": 3085, "administration": 3447, "80": 3770, "regulates": 26773, "3a": 23842, "hr": 17850, "selective": 13228, "short": 2460, "##kin": 4939, "vascular": 21449, "late": 2397, "quan": 24110, "##cit": 26243, "acute": 11325, "##ric": 7277, "##ect": 22471, "activities": 3450, "weight": 3635, "sar": 18906, "2008": 2263, "repair": 7192, "ke": 17710, "2016": 2355, "distribution": 4353, "95": 5345, "side": 2217, "seen": 2464, "events": 2824, "correlated": 23900, "solution": 5576, "demonstrate": 10580, "oxygen": 7722, "main": 2364, "##\u03b3": 29721, "plants": 4264, "life": 2166, "individual": 3265, "##ent": 4765, "##mat": 18900, "par": 11968, "secondary": 3905, "mainly": 3701, "investigate": 8556, "##per": 4842, "70": 3963, "home": 2188, "##var": 10755, "physiological": 19389, "predicted": 10173, "detect": 11487, "expected": 3517, "##bo": 5092, "detection": 10788, "##lc": 15472, "##tu": 8525, "corresponding": 7978, "##lia": 6632, "##oid": 9314, "##ito": 9956, "fact": 2755, "coli": 27441, "term": 2744, "established": 2511, "support": 2490, "include": 2421, "potent": 16834, "class": 2465, "located": 2284, "2007": 2289, "calcium": 13853, "dime": 27211, "prime": 3539, "##sit": 28032, "sl": 22889, "##30": 14142, "44": 4008, "iii": 3523, "hm": 20287, "41": 4601, "##og": 8649, "similarly": 6660, "central": 2430, "##ls": 4877, "fusion": 10077, "##met": 11368, "channel": 3149, "taken": 2579, "generation": 4245, "##onal": 16026, "understanding": 4824, "##ins": 7076, "##ds": 5104, "##ub": 12083, "matrix": 8185, "##iva": 11444, "##ysis": 20960, "##tase": 18260, "impact": 4254, "##ici": 28775, "ste": 26261, "comparison": 7831, "##com": 9006, "cluster": 9324, "proposed": 3818, "mean": 2812, "##zed": 5422, "##ros": 7352, "finally": 2633, "lu": 11320, "lac": 18749, "promotes": 14067, "ss": 7020, "##29": 24594, "bacteria": 10327, "led": 2419, "##22": 19317, "ti": 14841, "##fication": 10803, "influence": 3747, "motif": 16226, "##sa": 3736, "##ian": 2937, "ng": 12835, "despite": 2750, "##ple": 10814, "point": 2391, "46": 4805, "##\u03b4": 29722, "rat": 9350, "cancers": 25409, "figures": 4481, "additionally": 5678, "targeted": 9416, "\u2014": 1517, "rs": 12667, "##lin": 4115, "channels": 6833, "##ytic": 21252, "nucleus": 13502, "##pi": 8197, "step": 3357, "sen": 12411, "2006": 2294, "##fu": 11263, "##can": 9336, "##aco": 22684, "flow": 4834, "##icient": 20132, "polymer": 17782, "##yte": 17250, "##tam": 15464, "sensitive": 7591, "resistant": 13070, "stimulated": 25194, "##ec": 8586, "##ose": 9232, "##ni": 3490, "features": 2838, "added": 2794, "##an": 2319, "double": 3313, "##hc": 16257, "strongly": 6118, "##pati": 24952, "##ivation": 25761, "##ness": 2791, "subsequent": 4745, "##00": 8889, "selected": 3479, "cal": 10250, "density": 4304, "lack": 3768, "pbs": 13683, "##nc": 12273, "loop": 7077, "exhibited": 8176, "##go": 3995, "spec": 28699, "##mour": 20360, "##if": 10128, "compound": 7328, "kg": 4705, "forms": 3596, "limited": 3132, "##arm": 27292, "##gic": 12863, "applied": 4162, "times": 2335, "4a": 26424, "altered": 8776, "yeast": 21957, "47": 4700, "##tri": 18886, "##tric": 12412, "##mt": 20492, "electro": 16175, "stability": 9211, "##otype": 26305, "beta": 8247, "full": 2440, "##nu": 11231, "severe": 5729, "hip": 5099, "dysfunction": 28466, "across": 2408, "bo": 8945, "nt": 23961, "##eli": 20806, "five": 2274, "often": 2411, "##mine": 11233, "chemical": 5072, "\u2018": 1520, "##tre": 7913, "wide": 2898, "##vi": 5737, "##chemical": 15869, "ev": 23408, "evaluated": 16330, "##xa": 18684, "##par": 19362, "##cre": 16748, "##matic": 12644, "##ulate": 9869, "mp": 6131, "op": 6728, "para": 11498, "##40": 12740, "reduce": 5547, "##hr": 8093, "occurs": 5158, "signalling": 21919, "much": 2172, "dd": 20315, "combined": 4117, "cardiac": 15050, "##mas": 9335, "rather": 2738, "2017": 2418, "mat": 13523, "##lica": 19341, "##ago": 23692, "heart": 2540, "enriched": 25202, "greater": 3618, "weeks": 3134, "##pr": 18098, "##ial": 4818, "defined": 4225, "72": 5824, "ja": 14855, "core": 4563, "better": 2488, "content": 4180, "underlying": 10318, "agents": 6074, "49": 4749, "##ors": 5668, "##od": 7716, "kit": 8934, "link": 4957, "##mark": 10665, "assessed": 14155, "sy": 25353, "la": 2474, "200": 3263, "##cation": 10719, "exposed": 6086, "provided": 3024, "standard": 3115, "00": 4002, "001": 25604, "msc": 23794, "variants": 10176, "##gt": 13512, "hand": 2192, "marker": 12115, "initial": 3988, "capacity": 3977, "##mia": 10092, "~": 1066, "approximately": 3155, "general": 2236, "top": 2327, "##ru": 6820, "mali": 16007, "amount": 3815, "presented": 3591, "##cing": 6129, "status": 3570, "2005": 2384, "##static": 16677, "##ids": 9821, "##nic": 8713, "place": 2173, "##sic": 19570, "##some": 14045, "humans": 4286, "##lio": 12798, "sequencing": 24558, "review": 3319, "imp": 17727, "##take": 15166, "probe": 15113, "especially": 2926, "recruitment": 15680, "diet": 8738, "##idi": 28173, "injection": 13341, "whole": 2878, "90": 3938, "position": 2597, "gel": 21500, "gt": 14181, "du": 4241, "her": 2014, "##pit": 23270, "##oli": 10893, "##25": 17788, "##ular": 7934, "##estinal": 19126, "##tom": 20389, "yet": 2664, "fu": 11865, "##ve": 3726, "##di": 4305, "##sts": 12837, "55": 4583, "products": 3688, "##ele": 12260, "contains": 3397, "modification": 14080, "id": 8909, "##lp": 14277, "ion": 10163, "authors": 6048, "patterns": 7060, "##nist": 26942, "hypothesis": 10744, "included": 2443, "ut": 21183, "53": 5187, "##che": 5403, "necessary": 4072, "fox": 4419, "af": 21358, "ur": 24471, "*": 1008, "thereby": 8558, "organ": 5812, "members": 2372, "predict": 16014, "future": 2925, "##lor": 10626, "who": 2040, "nl": 17953, "cad": 28353, "##ivating": 17441, "kidney": 14234, "2004": 2432, "##45": 19961, "card": 4003, "healthy": 7965, "fc": 4429, "assembly": 3320, "54": 5139, "along": 2247, "conducted": 4146, "stable": 6540, "adult": 4639, "crystal": 6121, "##nat": 19833, "##gl": 23296, "##glia": 20011, "##bc": 9818, "modifications": 12719, "occur": 5258, "efficacy": 21150, "causes": 5320, "##col": 25778, "particularly": 3391, "stages": 5711, "51": 4868, "##rified": 22618, "component": 6922, "po": 13433, "transfer": 4651, "##camp": 26468, "identification": 8720, "##lage": 20679, "regulator": 21618, "ax": 22260, "##ani": 7088, "##du": 8566, "complete": 3143, "peripheral": 15965, "natural": 3019, "75": 4293, "prior": 3188, "context": 6123, "cleavage": 28691, "impaired": 18234, "gb": 16351, "##fo": 14876, "hours": 2847, "##ore": 5686, "##con": 8663, "##bet": 20915, "mor": 22822, "area": 2181, "cis": 20199, "vector": 9207, "skin": 3096, "clear": 3154, "##dro": 22196, "##gi": 5856, "##cu": 10841, "crucial": 10232, "observations": 9420, "##lam": 10278, "##del": 9247, "52": 4720, "##ogenic": 24278, "iv": 4921, "des": 4078, "few": 2261, "chi": 9610, "##70": 19841, "##nk": 8950, "period": 2558, "mb": 16914, "li": 5622, "##ulin": 18639, "alterations": 16705, "recognition": 5038, "phosphate": 17344, "calculated": 10174, "file": 5371, "polar": 11508, "fatty": 19101, "##let": 7485, "##ido": 13820, "##ka": 2912, "residue": 21755, "way": 2126, "block": 3796, "importance": 5197, "produce": 3965, "##up": 6279, "trials": 7012, "subsequently": 3525, "rates": 6165, "3d": 7605, "indicates": 7127, "##ab": 7875, "cf": 12935, "alpha": 6541, "chromosome": 16706, "interest": 3037, "put": 2404, "2000": 2456, "diabetes": 14671, "prevent": 4652, "56": 5179, "alternative": 4522, "quantitative": 20155, "report": 3189, "construct": 9570, "internal": 4722, "mi": 2771, "##oni": 10698, "unique": 4310, "relevant": 7882, "##24": 18827, "appears": 3544, "##logy": 6483, "nec": 26785, "improved": 5301, "##ii": 6137, "ins": 16021, "relatively": 4659, "2018": 2760, "##tr": 16344, "##cular": 15431, "2003": 2494, "##ates": 8520, "##uri": 9496, "software": 4007, "##26": 23833, "ina": 27118, "individuals": 3633, "reverse": 7901, "57": 5401, "sa": 7842, "relationship": 3276, "experiment": 7551, "##elo": 18349, "encoding": 17181, "formed": 2719, "##oto": 11439, "eu": 7327, "#": 1001, "##eb": 15878, "##terol": 27833, "fat": 6638, "possibility": 6061, "modified": 6310, "observation": 8089, "##life": 15509, "colon": 16844, "##pen": 11837, "##23": 21926, "collected": 5067, "elements": 3787, "##rogen": 22991, "tb": 26419, "tau": 19982, "dil": 29454, "ind": 27427, "##mc": 12458, "express": 4671, "average": 2779, "provides": 3640, "##so": 6499, "##nd": 4859, "carried": 3344, "##80": 17914, "basal": 15191, "catalytic": 26244, "##uration": 18924, "showing": 4760, "finding": 4531, "renal": 25125, "##tub": 28251, "mammalian": 26524, "##xin": 20303, "##28": 22407, "##ert": 8743, "ed": 3968, "##aly": 20766, "variety": 3528, "contain": 5383, "sigma": 13201, "complement": 13711, "innate": 25605, "##eth": 11031, "suppression": 16341, "##omy": 16940, "##ress": 8303, "##tat": 29336, "potentially": 9280, "cdc": 26629, "##50": 12376, "##line": 4179, "profile": 6337, "unknown": 4242, "ant": 14405, "##atic": 12070, "au": 8740, "importantly": 14780, "##lt": 7096, "coding": 16861, "implicated": 20467, "##he": 5369, "far": 2521, "strategy": 5656, "intensity": 8015, "ras": 20710, "tub": 14366, "cultures": 8578, "approaches": 8107, "coa": 28155, "##31": 21486, "sufficient": 7182, "65": 3515, "syndrome": 8715, "currently": 2747, "ld": 25510, "deficiency": 18888, "parameters": 11709, "antagonist": 17379, "health": 2740, "membranes": 24972, "58": 5388, "##gly": 25643, "environment": 4044, "prop": 17678, "processing": 6364, "##vir": 21663, "##hesis": 24124, "ka": 10556, "promoting": 7694, "rapid": 5915, "##olo": 12898, "##cter": 21162, "self": 2969, "made": 2081, "reports": 4311, "final": 2345, "##rt": 5339, "reporter": 6398, "com": 4012, "poor": 3532, "##virus": 23350, "initiation": 17890, "memory": 3638, "hence": 6516, "##chy": 11714, "est": 9765, "disorders": 10840, "##ept": 23606, "##phi": 21850, "##sto": 16033, "protective": 9474, "infections": 15245, "visual": 5107, "subset": 16745, "##city": 12972, "tel": 10093, "##uma": 12248, "##ss": 4757, "efficiency": 8122, "defects": 18419, "stimulate": 23216, "##mot": 18938, "ri": 15544, "systemic": 22575, "##py": 7685, "2002": 2526, "##tate": 12259, "synth": 24203, "##bu": 8569, "confirm": 12210, "versus": 6431, "later": 2101, "##va": 3567, "hydrogen": 9732, "##gra": 17643, "exhibit": 8327, "##stic": 10074, "##fold": 10371, "##fusion": 20523, "prostate": 25086, "##est": 4355, "##tors": 6591, "dynamics": 10949, "##ag": 8490, "six": 2416, "##ulation": 9513, "vitamin": 17663, "##tein": 9589, "nuclei": 23767, "##kar": 6673, "pain": 3255, "##pp": 9397, "imaging": 12126, "viruses": 18191, "substrates": 23725, "##rre": 14343, "##34": 22022, "astro": 28625, "cap": 6178, "suppressed": 13712, "59": 5354, "##lar": 8017, "valid": 9398, "liga": 8018, "requires": 5942, "96": 5986, "##32": 16703, "states": 2163, "months": 2706, "displayed": 6913, "62": 5786, "frequency": 6075, "represent": 5050, "rr": 25269, "food": 2833, "##42": 20958, "##rad": 12173, "##aa": 11057, "clearly": 4415, "##dm": 22117, "neo": 9253, "transient": 25354, "need": 2342, "certain": 3056, "toxicity": 22423, "##ulator": 20350, "##yn": 6038, "##36": 21619, "##ble": 3468, "63": 6191, "##tama": 28282, "##ina": 3981, "hu": 15876, "##dna": 28911, "immunity": 15403, "precursor": 14988, "##duction": 16256, "dynamic": 8790, "inducing": 29290, "##ng": 3070, "##ule": 9307, "##izing": 6026, "strategies": 9942, "fully": 3929, "male": 3287, "enrichment": 27226, "nad": 23233, "transition": 6653, "&": 1004, "##rosis": 29166, "##nr": 16118, "trim": 12241, "improve": 5335, "upstream": 13909, "fr": 10424, "mature": 9677, "product": 4031, "##fr": 19699, "61": 6079, "gi": 21025, "around": 2105, "involvement": 6624, "##it": 4183, "por": 18499, "sk": 15315, "needed": 2734, "significance": 7784, "profiles": 17879, "##ov": 4492, "##ulated": 8898, "##dh": 16425, "condition": 4650, "chip": 9090, "##late": 13806, "der": 4315, "vp": 21210, "##el": 2884, "reactions": 9597, "##54": 27009, "66": 5764, "##rr": 12171, "ann": 5754, "peak": 4672, "application": 4646, "##dy": 5149, "2001": 2541, "lt": 8318, "global": 3795, "##43": 23777, "subjects": 5739, "##res": 6072, "cannot": 3685, "percentage": 7017, "assess": 14358, "67": 6163, "64": 4185, "uv": 23068, "turn": 2735, "efficient": 8114, "##oco": 24163, "majority": 3484, "promoters": 26512, "neutral": 8699, "knockout": 11369, "##ft": 6199, "##ota": 17287, "alter": 11477, "rich": 4138, "dh": 28144, "##nts": 7666, "cent": 9358, "reactive": 22643, "reducing": 8161, "##tum": 11667, "##90": 21057, "volume": 3872, "washed": 8871, "highest": 3284, "characteristics": 6459, "##ites": 7616, "localized": 22574, "anal": 20302, "##44": 22932, "c1": 27723, "##57": 28311, "controlled": 4758, "##01": 24096, "##phy": 21281, "open": 2330, "sg": 22214, "larger": 3469, "intermediate": 7783, "metal": 3384, "##35": 19481, "oral": 8700, "ref": 25416, "left": 2187, "##oa": 10441, "##ulo": 18845, "##ein": 12377, "maintenance": 6032, "color": 3609, "##thy": 16921, "populations": 7080, "men": 2273, "regulators": 25644, "generally": 3227, "database": 7809, "##bin": 8428, "nh": 18699, "gal": 14891, "develop": 4503, "extent": 6698, "carbon": 6351, "##ium": 5007, "gran": 12604, "quality": 3737, "completely": 3294, "2d": 14134, "half": 2431, "terms": 3408, "kinetic": 20504, "numbers": 3616, "##pies": 13046, "##vas": 12044, "##set": 13462, "generate": 9699, "arrest": 6545, "help": 2393, "cascade": 16690, "treatments": 13441, "photo": 6302, "called": 2170, "abundance": 14531, "##bial": 21102, "mer": 21442, "##ff": 4246, "##ities": 6447, "##ray": 9447, "##iom": 18994, "##yse": 23274, "##vid": 17258, "motifs": 17366, "fast": 3435, "gm": 13938, "notch": 18624, "mr": 2720, "##ame": 14074, "##33": 22394, "oh": 2821, "score": 3556, "though": 2295, "knowledge": 3716, "notably": 5546, "behavior": 5248, "##ies": 3111, "##vira": 24093, "##65": 26187, "acts": 4490, "##box": 8758, "evaluate": 16157, "remain": 3961, "affects": 13531, "##kel": 11705, "basis": 3978, "##gm": 21693, "##ability": 8010, "ring": 3614, "abe": 14863, "now": 2085, "ki": 11382, "##bio": 26282, "entry": 4443, "##otic": 20214, "cha": 15775, "kc": 21117, "##rb": 15185, "almost": 2471, "arab": 5424, "sf": 16420, "base": 2918, "towards": 2875, "##olic": 23518, "source": 3120, "##ari": 8486, "aging": 12520, "partially": 6822, "##ules": 16308, "##forms": 22694, "##ze": 4371, "##ost": 14122, "seems": 3849, "##ming": 6562, "numerous": 3365, "##ora": 6525, "ana": 9617, "sections": 5433, "tre": 29461, "points": 2685, "500": 3156, "select": 7276, "modulation": 25502, "camp": 3409, "others": 2500, "contributes": 16605, "sperm": 18047, "selection": 4989, "soluble": 24345, "##meric": 25531, "##dine": 10672, "oxidation": 19577, "prepared": 4810, "real": 2613, "widely": 4235, "##rat": 8609, "dl": 21469, "approved": 4844, "68": 6273, "promising": 10015, "supplement": 12448, "below": 2917, "obesity": 24552, "react": 10509, "unclear": 10599, "##iv": 12848, "onset": 14447, "##stein": 8602, "mab": 26661, "symptoms": 8030, "##eta": 12928, "##ibility": 13464, "pen": 7279, "panel": 5997, "chemotherapy": 27144, "design": 2640, "released": 2207, "neural": 15756, "abc": 5925, "##em": 6633, "##cha": 7507, "##zation": 9276, "onto": 3031, "failure": 4945, "allow": 3499, "random": 6721, "diverse": 7578, "##tal": 9080, "ia": 24264, "02": 6185, "##cent": 13013, "##ie": 2666, "radio": 2557, "##pes": 10374, "##bri": 23736, "investigation": 4812, "designed": 2881, "note": 3602, "##ax": 8528, "mixture": 8150, "blocking": 10851, "lucifer": 24184, "71": 6390, "environmental": 4483, "labeled": 12599, "injected": 19737, "##min": 10020, "developmental": 13908, "try": 3046, "iron": 3707, "helix": 25743, "uc": 15384, "##tc": 13535, "##ks": 5705, "##sf": 22747, "microscopy": 29105, "##cci": 14693, "tolerance": 13986, "protection": 3860, "##imi": 27605, "degree": 3014, "appear": 3711, "##hort": 27794, "close": 2485, "##tis": 7315, "##37": 24434, "##ila": 11733, "thy": 15177, "longer": 2936, "blocked": 8534, "little": 2210, "om": 18168, "##phila": 26083, "fluorescent": 22184, "old": 2214, "explain": 4863, "electron": 10496, "screening": 11326, "published": 2405, "stained": 9702, "##gr": 16523, "become": 2468, "##ur": 3126, "ib": 21307, "clone": 17598, "constant": 5377, "resolution": 5813, "##48": 18139, "throughout": 2802, "agent": 4005, "trial": 3979, "##uk": 6968, "developing": 4975, "invasive": 17503, "interacting": 21935, "heat": 3684, "nor": 4496, "##ile": 9463, "mimic": 23150, "##my": 8029, "##51": 22203, "field": 2492, "toxin": 29090, "##gin": 11528, "understand": 3305, "##39": 23499, "already": 2525, "third": 2353, "69": 6353, "delivery": 6959, "##ki": 3211, "76": 6146, "lesions": 22520, "db": 16962, "##iol": 20282, "supporting": 4637, "##ulating": 10924, "toward": 2646, "negatively": 19762, "doses": 21656, "##fied": 10451, "hybrid": 8893, "coupled": 11211, "examine": 11628, "sodium": 13365, "terminus": 7342, "##av": 11431, "supported": 3569, "mis": 28616, "primarily": 3952, "candidate": 4018, "cortex": 17132, "largely": 4321, "possibly": 4298, "useful": 6179, "##eto": 18903, "variant": 8349, "off": 2125, "best": 2190, "##ld": 6392, "material": 3430, "until": 2127, "bs": 18667, "responsive": 26651, "##psis": 18409, "variation": 8386, "##gram": 13113, "ai": 9932, "right": 2157, "##tp": 25856, "shift": 5670, "nature": 3267, "##tec": 26557, "##gnant": 27881, "gap": 6578, "diagnosis": 11616, "##mina": 22311, "toxic": 11704, "##lf": 10270, "##chan": 14856, "##pol": 18155, "##han": 4819, "discovery": 5456, "driven": 5533, "extract": 14817, "##\u00b1": 29657, "##lat": 20051, "protocol": 8778, "amounts": 8310, "pressure": 3778, "reduces": 13416, "##ili": 18622, "what": 2054, "##41": 23632, "##bl": 16558, "regarding": 4953, "noted": 3264, "##sso": 24137, "series": 2186, "clusters": 12906, "fixed": 4964, "rap": 9680, "##rative": 18514, "dt": 26718, "rapidly": 5901, "##ler": 3917, "involving": 5994, "comparable": 12435, "lacking": 11158, "cam": 11503, "remained": 2815, "##do": 3527, "amy": 6864, "member": 2266, "skeletal": 20415, "##ite": 4221, "week": 2733, "must": 2442, "female": 2931, "locus": 25206, "fragments": 10341, "ya": 8038, "73": 6421, "barrier": 8803, "##rane": 18053, "allows": 4473, "synthetic": 12553, "linear": 7399, "85": 5594, "abnormal": 19470, "axis": 8123, "women": 2308, "particles": 9309, "##ren": 7389, "2019": 10476, "achieved": 4719, "##phobic": 20200, "conclusion": 7091, "ae": 29347, "##eric": 22420, "find": 2424, "##tated": 16238, "robust": 15873, "##dra": 7265, "advanced": 3935, "intrinsic": 23807, "rc": 22110, "##lates": 26786, "cut": 3013, "maintained": 5224, "##\u00d7": 26306, "strand": 11226, "##opa": 29477, "grown": 4961, "good": 2204, "display": 4653, "encoded": 12359, "aba": 19557, "##bil": 14454, "flag": 5210, "composition": 5512, "az": 17207, "contained": 4838, "##47": 22610, "plus": 4606, "74": 6356, "decreases": 17913, "background": 4281, "79": 6535, "##tility": 18724, "##rh": 25032, "usually": 2788, "stimuli": 22239, "focused": 4208, "recognized": 3858, "sw": 25430, "image": 3746, "scientific": 4045, "fragment": 15778, "##ami": 10631, "##\u03ba": 29726, "##gb": 18259, "abundant": 12990, "rn": 29300, "1999": 2639, "##pg": 26952, "disruption": 20461, "transplant": 22291, "##ding": 4667, "reg": 19723, "##cine": 16567, "##pose": 20688, "mid": 3054, "acc": 16222, "##lea": 19738, "canonical": 18562, "enter": 4607, "1000": 6694, "lineage": 13321, "a2": 22441, "opt": 23569, "##cd": 19797, "##sul": 23722, "earlier": 3041, "##dc": 16409, "thought": 2245, "##mers": 16862, "m2": 25525, "##60": 16086, "92": 6227, "probably": 2763, "##cho": 9905, "gu": 19739, "78": 6275, "green": 2665, "dea": 26709, "reference": 4431, "outcome": 9560, "extracted": 15901, "represents": 5836, "rev": 7065, "commonly": 4141, "app": 10439, "ze": 27838, "77": 6255, "once": 2320, "eli": 12005, "frequently": 4703, "bro": 22953, "mortality": 13356, "m1": 23290, "##lase": 25002, "##46": 21472, "instead": 2612, "##bic": 13592, "##fera": 27709, "motor": 5013, "plates": 7766, "positively": 13567, "##man": 2386, "box": 3482, "ao": 20118, "areas": 2752, "hormone": 18714, "##pressed": 19811, "respiratory": 16464, "literature": 3906, "steps": 4084, "##nes": 5267, "##umi": 12717, "slightly": 3621, "circulating": 22458, "ter": 28774, "kb": 21677, "##genase": 28835, "closely": 4876, "synthesized": 23572, "exercise": 6912, "mode": 5549, "##sin": 11493, "evolution": 6622, "bond": 5416, "require": 5478, "seed": 6534, "bt": 18411, "##ura": 4648, "##iti": 25090, "hz": 22100, "facilitate": 10956, "subjected": 13532, "##cor": 27108, "##ucible": 21104, "##yna": 18279, "##ene": 8625, "##vs": 15088, "##ction": 7542, "morphology": 19476, "##oxide": 28479, "maintain": 5441, "##olar": 19478, "prediction": 17547, "150": 5018, "room": 2282, "##be": 4783, "tool": 6994, "manufacturer": 7751, "yield": 10750, "##oids": 17086, "involves": 7336, "82": 6445, "cardiovascular": 22935, "disc": 5860, "ea": 19413, "whose": 3005, "pulmonary": 21908, "beneficial": 15189, "##gated": 11644, "grade": 3694, "mv": 19842, "pri": 26927, "nevertheless": 6600, "digest": 17886, "##oe": 8913, "##sh": 4095, "##omics": 25524, "median": 3991, "transformation": 8651, "81": 6282, "vaccine": 17404, "fed": 7349, "##ants": 11390, "sox": 9175, "##tt": 4779, "##uated": 16453, "consequently": 8821, "##ova": 7103, "forming": 5716, "tt": 23746, "last": 2197, "##100": 18613, "ik": 20912, "mal": 15451, "disorder": 8761, "##istic": 6553, "99": 5585, "##hari": 18428, "agreement": 3820, "##uted": 12926, "##des": 6155, "dec": 11703, "##ast": 14083, "##iot": 25185, "reviewed": 8182, "networks": 6125, "pv": 26189, "##md": 26876, "##ep": 13699, "##lets": 13461, "83": 6640, "air": 2250, "radiation": 8249, "##eration": 16754, "##ala": 7911, "##ating": 5844, "cox": 9574, "space": 2686, "account": 4070, "wall": 2813, "##ton": 2669, "ck": 23616, "extended": 3668, "means": 2965, "contact": 3967, "capable": 5214, "markedly": 29295, "having": 2383, "##tl": 19646, "##ores": 16610, "latter": 3732, "##dim": 22172, "##itic": 18291, "layer": 6741, "trafficking": 11626, "serve": 3710, "performance": 2836, "##56": 26976, "course": 2607, "lam": 16983, "threshold": 11207, "##zing": 6774, "challenge": 4119, "##oro": 14604, "?": 1029, "detailed": 6851, "removed": 3718, "td": 14595, "##ace": 10732, "measurements": 11702, "##gation": 12540, "element": 5783, "scale": 4094, "##ron": 4948, "section": 2930, "respond": 6869, "##ky": 4801, "##iation": 18963, "native": 3128, "##sio": 20763, "supplemented": 20585, "retro": 22307, "year": 2095, "character": 2839, "##phate": 24556, "aggregation": 28041, "dem": 17183, "run": 2448, "technology": 2974, "##hos": 15006, "repression": 22422, "mk": 12395, "china": 2859, "sets": 4520, "##gnan": 28207, "impairment": 25172, "##mus": 7606, "##trom": 13887, "##ko": 3683, "intake": 13822, "##air": 11215, "tail": 5725, "##ori": 10050, "##por": 17822, "03": 6021, "##tino": 25690, "87": 6584, "extracts": 27059, "appropriate": 6413, "broad": 5041, "adaptive": 19293, "##isto": 20483, "depending": 5834, "contribution": 6691, "promoted": 3755, "bis": 20377, "##ono": 17175, "feature": 3444, "##rg": 10623, "variable": 8023, "http": 8299, "##ides": 8621, "stab": 17079, "outcomes": 13105, "##escence": 28964, "affecting": 12473, "bb": 22861, "directed": 2856, "##ider": 18688, "##yme": 25219, "##emia": 17577, "overnight": 11585, "explore": 8849, "mn": 24098, "qui": 21864, "adjacent": 5516, "##morphism": 19539, "discussed": 6936, "organization": 3029, "lin": 11409, "marrow": 24960, "gain": 5114, "spin": 6714, "1998": 2687, "occurred": 4158, "apparent": 6835, "array": 9140, "allowed": 3039, "employed": 4846, "defense": 3639, "balance": 5703, "##yst": 27268, "reveal": 7487, "log": 8833, "version": 2544, "pol": 14955, "tag": 6415, "origin": 4761, "##ution": 13700, "ft": 3027, "disrupt": 23217, "sep": 19802, "recovery": 7233, "apt": 26794, "understood": 5319, "sul": 21396, "corona": 21887, "84": 6391, "summary": 12654, "##lom": 21297, "itself": 2993, "wound": 6357, "basic": 3937, "adverse": 15316, "##ptic": 20746, "##ency": 11916, "estimated": 4358, "administered": 8564, "characteristic": 8281, "images": 4871, "ob": 27885, "trigger": 9495, "measure": 5468, "86": 6564, "98": 5818, "white": 2317, "b1": 29491, "94": 6365, "##si": 5332, "##rran": 28327, "university": 2118, "diagnostic": 16474, "##era": 6906, "##pan": 9739, "physical": 3558, "tagged": 26610, "maximum": 4555, "aggregate": 9572, "##loid": 27710, "prefer": 9544, "rabbit": 10442, "date": 3058, "##uti": 21823, "transmission": 6726, "##rte": 19731, "gut": 9535, "evaluation": 9312, "characterization": 23191, "intro": 17174, "ethanol": 22886, "pseudo": 18404, "parallel": 5903, "null": 19701, "##onga": 26356, "force": 2486, "triggered": 13330, "smaller": 3760, "fetal": 25972, "zinc": 15813, "pairs": 7689, "##olin": 18861, "##dom": 9527, "replicate": 28024, "fit": 4906, "root": 7117, "laboratory": 5911, "blue": 2630, "88": 6070, "includes": 2950, "moi": 25175, "##valent": 24879, "##osa": 8820, "300": 3998, "extensive": 4866, "focus": 3579, "instance": 6013, "##bb": 10322, "effectively": 6464, "causing": 4786, "acting": 3772, "incidence": 18949, "appeared": 2596, "##lb": 20850, "##ure": 5397, "plastic": 6081, "leukemia": 25468, "##rdial": 25070, "89": 6486, "##ved": 7178, "spectrum": 8674, "biology": 7366, "classical": 4556, "failed": 3478, "salt": 5474, "initially": 3322, "dominant": 7444, "accompanied": 5642, "differentiated": 24374, "near": 2379, "##fe": 7959, "composed": 3605, "trip": 4440, "##52": 25746, "every": 2296, "bu": 20934, "a1": 17350, "##ral": 7941, "##br": 19892, "solid": 5024, "\u00b7": 1087, "substitution": 20885, "received": 2363, "depends": 9041, "producing": 5155, "manuscript": 8356, "acquired": 3734, "baseline": 26163, "sal": 16183, "partial": 7704, "slow": 4030, "influenza": 24442, "organs": 11595, "cognitive": 10699, "maternal": 11062, "und": 6151, "sum": 7680, "04": 5840, "feedback": 12247, "explored": 10641, "cold": 3147, "library": 3075, "##bm": 25526, "adapt": 15581, "difficult": 3697, "mixed": 3816, "##biotic": 26591, "deter": 28283, "besides": 4661, "##men": 3549, "identity": 4767, "expansion": 4935, "duration": 9367, "again": 2153, "sv": 17917, "index": 5950, "##ential": 24271, "##rac": 22648, "technologies": 6786, "integrity": 11109, "##ali": 11475, "question": 3160, "considering": 6195, "##lysis": 26394, "copy": 6100, "##rol": 13153, "93": 6109, "typically": 4050, "marked": 4417, "##\u2212": 22543, "proportion": 10817, "97": 5989, "depleted": 22595, "chains": 8859, "cop": 8872, "pair": 3940, "##ance": 6651, "prof": 11268, "mostly": 3262, "ul": 17359, "techniques": 5461, "efficiently": 18228, "van": 3158, "##amy": 24079, "bra": 11655, "##vo": 6767, "band": 2316, "organisms": 11767, "overlap": 17702, "consequence": 9509, "identical": 7235, "que": 10861, "##som": 25426, "discovered": 3603, "##hl": 7317, "ions": 15956, "obtain": 6855, "testing": 5604, "rd": 16428, "sol": 14017, "vehicle": 4316, "##pressing": 24128, "##tine": 10196, "reads": 9631, "analyze": 17908, "nervous": 6091, "seven": 2698, "inactive": 16389, "##vine": 20534, "##erative": 25284, "pep": 27233, "optimal": 15502, "##ole": 9890, "separated": 5459, "head": 2132, "1997": 2722, "fluid": 8331, "sb": 24829, "removal": 8208, "tests": 5852, "mentioned": 3855, "##iso": 19565, "minimal": 10124, "distance": 3292, "spatial": 13589, "##int": 18447, "##un": 4609, "ru": 21766, "providing": 4346, "interface": 8278, "\"": 1000, "91": 6205, "moderate": 8777, "dual": 7037, "comparing": 13599, "allowing": 4352, "compare": 12826, "checkpoint": 26520, "voltage": 10004, "except": 3272, "##nac": 18357, "make": 2191, "dip": 16510, "transferred": 4015, "donor": 15009, "respect": 4847, "materials": 4475, "##drich": 23335, "search": 3945, "typical": 5171, "germany": 2762, "conversion": 7584, "cod": 19429, "mechanical": 6228, "pathology": 19314, "clones": 24418, "restricted": 7775, "intact": 10109, "www": 7479, "##cp": 21906, "milk": 6501, "tha": 22794, "derivatives": 16942, "event": 2724, "program": 2565, "predominantly": 9197, "asthma": 26180, "similarity": 14402, "##ua": 6692, "elisa": 29490, "##ling": 2989, "differ": 11234, "##pid": 23267, "rf": 21792, "##uit": 14663, "demonstrating": 14313, "lethal": 12765, "preventing": 10723, "tools": 5906, "soc": 27084, "##psy": 18075, "center": 2415, "##ther": 12399, "##55": 24087, "kin": 12631, "##chrome": 20366, "##dis": 10521, "c2": 29248, "##ram": 6444, "##hs": 7898, "##ula": 7068, "##sat": 16846, "positions": 4460, "##ations": 10708, "purchased": 4156, "bn": 24869, "severity": 18976, "independently": 9174, "ah": 6289, "controlling": 9756, "##fc": 11329, "undergo": 13595, "switch": 6942, "##ir": 4313, "##gist": 24063, "##ration": 8156, "none": 3904, "cry": 5390, "attributed": 7108, "simple": 3722, "maintaining": 8498, "regeneration": 20045, "##ran": 5521, "##ible": 7028, "sumo": 28193, "briefly": 4780, "mild": 10256, "##aneous": 17191, "##irus": 26013, "reflect": 8339, "##ents": 11187, "machinery": 10394, "##vis": 11365, "defective": 28829, "weak": 5410, "##ai": 4886, "eight": 2809, "##ola": 6030, "temporal": 15850, "##izes": 10057, "##df": 20952, "##car": 10010, "##cies": 9243, "##filtration": 28674, "vent": 18834, "inner": 5110, "##lip": 15000, "av": 20704, "##lization": 22731, "##yde": 18124, "pac": 14397, "##tan": 5794, "##ei": 7416, "mann": 10856, "fm": 4718, "insertion": 23851, "sex": 3348, "prolonged": 15330, "clearance": 14860, "tam": 17214, "rank": 4635, "care": 2729, "hair": 2606, "harbor": 6496, "##mide": 24284, "collectively": 13643, "##ham": 3511, "##gal": 9692, "##gp": 21600, "nod": 7293, "minutes": 2781, "growing": 3652, "opposite": 4500, "column": 5930, "peg": 25039, "ku": 13970, "120": 6036, "defect": 21262, "nitrogen": 14114, "remaining": 3588, "##rn": 6826, "repeated": 5567, "##amine": 19915, "##iate": 13143, "consistently": 10862, "tract": 12859, "125": 8732, "fisher": 8731, "##sm": 6491, "##66": 28756, "explained": 4541, "respective": 7972, "consumption": 8381, "observe": 11949, "gradient": 17978, "##llin": 21202, "##roid": 22943, "compartment": 15273, "neither": 4445, "##son": 3385, "##quin": 12519, "ten": 2702, "aim": 6614, "##astic": 20875, "##lence": 22717, "procedure": 7709, "great": 2307, "page": 3931, "##tur": 20689, "surgery": 5970, "atm": 27218, "insights": 20062, "minor": 3576, "smooth": 5744, "read": 3191, "improvement": 7620, "advantage": 5056, "##eit": 20175, "rip": 10973, "substantial": 6937, "med": 19960, "##typic": 23186, "bonds": 9547, "##codes": 23237, "art": 2396, "##din": 8718, "##75": 23352, "start": 2707, "##que": 4226, "represented": 3421, "divided": 4055, "##vate": 16952, "nerve": 9113, "##49": 26224, "scores": 7644, "pet": 9004, "chromosomes": 26874, "docking": 25776, "children": 2336, "exist": 4839, "repeat": 9377, "simulations": 24710, "constructed": 3833, "##uki": 14228, "##cta": 25572, "##fat": 27753, "unlike": 4406, "exact": 6635, "normally": 5373, "feeding": 8521, "conventional": 7511, "families": 2945, "1996": 2727, "medical": 2966, "##ciation": 23247, "preparation": 7547, "##uate": 20598, "peaks": 11373, "naive": 15743, "ot": 27178, "##pin": 8091, "##rase": 23797, "##ath": 8988, "spinal": 16492, "crisp": 15594, "view": 3193, "supplemental": 27024, "liquid": 6381, "classified": 6219, "##ged": 5999, "fibers": 16662, "protect": 4047, "##iling": 16281, "dietary": 23444, "##eter": 15141, "oxide": 15772, "##nea": 22084, "deposition": 19806, "uk": 2866, "cerebral": 18439, "##ella": 8411, "##ck": 3600, "aspects": 5919, "rise": 4125, "namely": 8419, "##eo": 8780, "sugar": 5699, "exchange": 3863, "location": 3295, "utilized": 12550, "spectra": 29237, "charge": 3715, "leaves": 3727, "##dd": 14141, "prevention": 9740, "##eles": 26741, "initiate": 17820, "##red": 5596, "actions": 4506, "ali": 4862, "mast": 15429, "benefit": 5770, "follow": 3582, "##pathy": 20166, "counter": 4675, "microscope": 24635, "entire": 2972, "##ht": 11039, "successfully": 5147, "add": 5587, "purification": 28406, "##gate": 5867, "alcohol": 6544, "phenomenon": 9575, "##itis": 13706, "relationships": 6550, "##active": 19620, "equivalent": 5662, "address": 4769, "##der": 4063, "##64": 21084, "##elin": 18809, "album": 2201, "prevents": 16263, "pot": 8962, "curve": 7774, "##ig": 8004, "proton": 20843, "graph": 10629, "##graphy": 12565, "##tension": 29048, "computational": 15078, "applications": 5097, "saline": 28413, "daily": 3679, "##scu": 28817, "transformed": 8590, "##lice": 13231, "cv": 26226, "assessment": 7667, "supports": 6753, "healing": 8907, "conversely": 18868, "400": 4278, "excess": 9987, "susceptible": 18002, "mei": 19734, "why": 2339, "101": 7886, "reversed": 11674, "outer": 6058, "mammals": 11993, "##oll": 14511, "rear": 4373, "##thi": 15222, "##layer": 24314, "##cca": 16665, "gala": 16122, "reached": 2584, "amplified": 26986, "simultaneously": 7453, "oct": 13323, "##cat": 11266, "caps": 9700, "##pot": 11008, "propose": 16599, "poorly": 9996, "excessive": 11664, "consists": 3774, "young": 2402, "rice": 5785, "integration": 8346, "prevented": 8729, "distal": 29333, "comprehensive": 7721, "##ring": 4892, "isolation": 12477, "blockade": 15823, "introduced": 3107, "participate": 5589, "limiting": 14879, "cart": 11122, "##gos": 12333, "sam": 3520, "##il": 4014, "##metric": 12589, "pocket": 4979, "parasite": 21198, "proto": 15053, "isolate": 27152, "##dal": 9305, "##cans": 26642, "sci": 16596, "##ans": 6962, "##rf": 12881, "coated": 15026, "stimulus": 19220, "successful": 3144, "##avi": 18891, "triggers": 27099, "sur": 7505, "##fb": 26337, "sq": 5490, "alignment": 12139, "relevance": 21923, "net": 5658, "involve": 9125, "implant": 27159, "equal": 5020, "ultimately": 4821, "sat": 2938, "contributing": 8020, "evident": 10358, "accordingly": 11914, "##mar": 7849, "establish": 5323, "proper": 5372, "nearly": 3053, "recruited": 8733, "expressions": 11423, "vessels": 6470, "carrying": 4755, "pool": 4770, "##film": 23665, "division": 2407, "treat": 7438, "changed": 2904, "pit": 6770, "sec": 10819, "centro": 18120, "movement": 2929, "template": 23561, "newly": 4397, "consensus": 10465, "wang": 7418, "stranded": 15577, "benz": 17770, "##nch": 12680, "##itor": 15660, "##rro": 18933, "analog": 11698, "extraction": 14676, "morphological": 24012, "##ira": 7895, "lateral": 11457, "##iz": 10993, "enhancement": 22415, "\u2265": 1609, "coupling": 19780, "participants": 6818, "fish": 3869, "abnormalities": 28828, "##sse": 11393, "occurring": 10066, "separate": 3584, "recorded": 2680, "sac": 17266, "##uta": 13210, "attention": 3086, "colony": 5701, "##gas": 12617, "regression": 26237, "regard": 7634, "##das": 8883, "insight": 12369, "instructions": 8128, "learning": 4083, "done": 2589, "platform": 4132, "enhancing": 20226, "occurrence": 14404, "validation": 27354, "immediately": 3202, "##iq": 18515, "leaf": 7053, "##chi": 5428, "##mma": 14760, "measurement": 10903, "dos": 9998, "depend": 12530, "sources": 4216, "precise": 10480, "cord": 11601, "external": 6327, "##ncy": 9407, "##far": 14971, "##tively": 25499, "strength": 3997, "##nti": 16778, "cost": 3465, "representative": 4387, "bal": 28352, "decreasing": 16922, "screen": 3898, "tube": 7270, "rare": 4678, "##ulates": 18969, "deficit": 15074, "safety": 3808, "##tage": 26702, "achieve": 6162, "##ln": 19666, "fur": 6519, "contributed": 5201, "rescue": 5343, "novo": 24576, "##ime": 14428, "obe": 15578, "bodies": 4230, "possess": 10295, "##za": 4143, "maximal": 29160, "lb": 6053, "criteria": 9181, "##cap": 17695, "coe": 24873, "solvent": 23735, "accordance": 10388, "sleep": 3637, "availability": 11343, "wi": 15536, "dark": 2601, "##icular": 21412, "just": 2074, "flux": 19251, "interfere": 15115, "##ification": 9031, "delayed": 8394, "man": 2158, "sin": 8254, "##hes": 15689, "aux": 19554, "##para": 28689, "spontaneous": 17630, "segment": 6903, "prominent": 4069, "share": 3745, "starting": 3225, "##ics": 6558, "##code": 16044, "junction": 5098, "forward": 2830, "pal": 14412, "consequences": 8465, "##lit": 15909, "##illa": 9386, "processed": 13995, "##tions": 9285, "blocks": 5991, "##reus": 23446, "upper": 3356, "##ae": 6679, "##the": 10760, "absent": 9962, "val": 11748, "##pd": 17299, "##rate": 11657, "raw": 6315, "org": 8917, "shorter": 7820, "progressive": 6555, "sensing": 13851, "##rang": 24388, "accumulate": 27598, "shape": 4338, "##gel": 12439, "##pf": 14376, "lost": 2439, "sensor": 13617, "making": 2437, "access": 3229, "##iae": 19001, "classes": 4280, "input": 7953, "pregnancy": 10032, "circa": 12800, "##ressed": 16119, "##therapy": 20900, "##mit": 22930, "##rd": 4103, "250": 5539, "extensively": 8077, "sustained": 8760, "shock": 5213, "referred": 3615, "##dian": 11692, "##86": 20842, "##omo": 19506, "##ary": 5649, "##lum": 12942, "limit": 5787, "##nation": 9323, "##hen": 10222, "paper": 3259, "determination": 9128, "intervention": 8830, "stroke": 6909, "bands": 4996, "##ras": 8180, "beyond": 3458, "mac": 6097, "##sor": 21748, "ultra": 11087, "dex": 20647, "les": 4649, "qi": 18816, "conclude": 16519, "emerging": 8361, "##mm": 7382, "##ser": 8043, "##rating": 15172, "reason": 3114, "##ode": 10244, "aggressive": 9376, "gram": 13250, "loading": 10578, "follows": 4076, "##fish": 7529, "stabilization": 28715, "##ctor": 16761, "associations": 8924, "##lab": 20470, "##amp": 16613, "##way": 4576, "signature": 8085, "integrated": 6377, "ff": 21461, "##itan": 25451, "stronger": 6428, "ie": 29464, "unable": 4039, "etc": 4385, "charged": 5338, "editing": 9260, "stored": 8250, "technique": 6028, "alternatively": 14084, "correct": 6149, "xi": 8418, "##lla": 4571, "##rio": 9488, "sulfate": 26754, "##oi": 10448, "seem": 4025, "consisting": 5398, "repeats": 17993, "jun": 12022, "overcome": 9462, "nodes": 14164, "original": 2434, "rv": 27634, "needs": 3791, "placed": 2872, "##ption": 16790, "130": 7558, "##lm": 13728, "verified": 20119, "trend": 9874, "inside": 2503, "striking": 8478, "take": 2202, "##bra": 10024, "##dle": 10362, "kappa": 16000, "acidic": 24171, "contacts": 10402, "labeling": 28847, "alteration": 26014, "distributed": 5500, "##59": 28154, "rig": 19838, "vis": 25292, "nico": 19332, "blast": 8479, "##rence": 24413, "##vant": 18941, "units": 3197, "##ancy": 11656, "concept": 4145, "turnover": 20991, "orientation": 10296, "triple": 6420, "continuous": 7142, "beads": 17530, "article": 3720, "suitable": 7218, "cruz": 8096, "gamma": 13091, "pod": 17491, "##rization": 26910, "u2": 23343, "mini": 7163, "zhang": 9327, "restriction": 16840, "diminished": 15911, "diversity": 8906, "back": 2067, "unit": 3131, "initiated": 7531, "##ica": 5555, "dramatically": 12099, "makes": 3084, "colleagues": 8628, "treating": 12318, "ala": 21862, "stabilize": 27790, "medicine": 4200, "cycles": 12709, "existing": 4493, "diameter": 6705, "ratios": 21879, "adaptation": 6789, "##85": 27531, "1995": 2786, "##fin": 16294, "vectors": 19019, "lei": 26947, "separation": 8745, "ranging": 7478, "##ener": 24454, "##ny": 4890, "spa": 12403, "##zes": 11254, "##chemist": 24229, "investigations": 9751, "variations": 8358, "lungs": 8948, "arm": 2849, "##lita": 27606, "##tose": 22282, "vc": 18315, "documented": 8832, "##hm": 14227, "06": 5757, "##ces": 9623, "sense": 3168, "bearing": 7682, "twice": 3807, "##val": 10175, "restored": 5854, "cervical": 28711, "identifying": 12151, "power": 2373, "confirming": 19195, "matched": 10349, "presentation": 8312, "determining": 12515, "io": 22834, "details": 4751, "greatly": 6551, "##ava": 12462, "##bn": 24700, "monitored": 17785, "list": 2862, "##ech": 15937, "##ical": 7476, "##egan": 20307, "##fide": 20740, "parental": 18643, "fungi": 15289, "steady": 6706, "attachment": 14449, "indirectly": 17351, "amplitude": 22261, "##zh": 27922, "behavioral": 14260, "##olate": 19425, "perform": 4685, "abolished": 8961, "infectious": 16514, "demonstrates": 16691, "sept": 17419, "comparisons": 18539, "aged": 4793, "mill": 4971, "##fy": 12031, "collection": 3074, "surrounding": 4193, "subject": 3395, "vaccines": 28896, "idea": 2801, "examples": 4973, "##ulum": 25100, "commercial": 3293, "persistent": 14516, "contract": 3206, "recognize": 6807, "palm": 5340, "##ded": 5732, "##ave": 10696, "##cic": 19053, "live": 2444, "transcribed": 26223, "limitations": 12546, "##abi": 28518, "progress": 5082, "##su": 6342, "harvested": 22629, "exhibits": 10637, "##hd": 14945, "##plex": 19386, "candidates": 5347, "##put": 18780, "absorption": 16326, "sham": 25850, "loops": 15932, "santa": 4203, "adam": 4205, "aimed": 6461, "training": 2731, "social": 2591, "##cut": 12690, "##cera": 19357, "indirect": 14958, "dye": 18554, "analogue": 21800, "closed": 2701, "ill": 5665, "qu": 24209, "let": 2292, "delay": 8536, "##ug": 15916, "males": 3767, "##raf": 27528, "shared": 4207, "classification": 5579, "online": 3784, "worldwide": 4969, "reach": 3362, "rpm": 11575, "bladder": 24176, "##aro": 10464, "setting": 4292, "offspring": 13195, "describe": 6235, "inclusion": 10502, "##tory": 7062, "##zu": 9759, "##lating": 22248, "conduct": 6204, "##plication": 21557, "folding": 12745, "subgroup": 20576, "ice": 3256, "este": 28517, "##vin": 6371, "##ride": 15637, "obvious": 5793, "park": 2380, "ee": 25212, "deco": 21933, "node": 13045, "bud": 13007, "tax": 4171, "##ience": 13684, "##den": 4181, "linking": 11383, "damaged": 5591, "bar": 3347, "people": 2111, "past": 2627, "stimulating": 27295, "140": 8574, "currents": 14731, "##kr": 21638, "females": 3801, "adults": 6001, "##oton": 25862, "##ef": 12879, "tor": 17153, "##lli": 6894, "rock": 2600, "##ote": 12184, "##lized": 28931, "diver": 17856, "define": 9375, "complexity": 11619, "architecture": 4294, "##sl": 14540, "##tus": 5809, "depression": 6245, "mapped": 17715, "termed": 12061, "extension": 5331, "dependence": 18642, "##pus": 12207, "avoid": 4468, "give": 2507, "middle": 2690, "acquisition": 7654, "loaded": 8209, "##58": 27814, "complementary": 21053, "##ster": 6238, "##gre": 17603, "##los": 10483, "facilitates": 27777, "million": 2454, "exclusively": 7580, "explanation": 7526, "##lis": 6856, "procedures": 8853, "##ema": 14545, "##ven": 8159, "intriguing": 23824, "##ology": 6779, "perhaps": 3383, "##sb": 19022, "zebra": 29145, "##gon": 7446, "##logic": 27179, "named": 2315, "##sd": 16150, "##cia": 7405, "clinic": 9349, "##wi": 9148, "##ement": 13665, "thyroid": 29610, "##nta": 12380, "ends": 4515, "##uo": 19098, "drive": 3298, "frequent": 6976, "tim": 5199, "mic": 23025, "world": 2088, "lane": 4644, "pronounced": 8793, "##pressive": 27484, "bas": 19021, "true": 2995, "lent": 15307, "japan": 2900, "129": 14378, "combinations": 14930, "surprisingly": 10889, "##ility": 15148, "vital": 8995, "requirement": 9095, "module": 11336, "tip": 5955, "researchers": 6950, "generating": 11717, "storage": 5527, "103": 9800, "inverse": 19262, "muscles": 6650, "110": 7287, "dorsal": 12759, "gate": 4796, "neon": 16231, "sim": 21934, "remarkably": 17431, "##gat": 20697, "spread": 3659, "um": 8529, "evolutionary": 12761, "##grade": 24170, "summarized": 22539, "existence": 4598, "influences": 8092, "##nb": 27698, "seeded": 13916, "##ism": 2964, "##rba": 28483, "substantially": 12381, "293": 26953, "##eous": 14769, "2020": 12609, "examination": 7749, "##cite": 17847, "##hetic": 20086, "##duced": 28901, "##pod": 27633, "##and": 5685, "##ima": 9581, "phases": 12335, "104": 9645, "san": 2624, "decline": 6689, "fungal": 28079, "##ffi": 26989, "prom": 20877, "##nos": 15460, "variability": 28436, "label": 3830, "drought": 14734, "##ben": 10609, "231": 20304, "##lux": 25148, "listed": 3205, "influenced": 5105, "fate": 6580, "trail": 4446, "ham": 10654, "monitoring": 8822, "problem": 3291, "excluded": 12421, "own": 2219, "##ril": 15928, "##llet": 22592, "##ves": 6961, "##isation": 6648, "overlapping": 20567, "##leen": 24129, "##pop": 16340, "##ape": 24065, "##end": 10497, "##tar": 7559, "outside": 2648, "paired": 12739, "complications": 12763, "##az": 10936, "1994": 2807, "bias": 13827, "compartments": 27998, "reveals": 7657, "##rit": 14778, "##oz": 18153, "modeling": 11643, "##ati": 10450, "lab": 6845, "becomes": 4150, "specimens": 9908, "shi": 11895, "122": 13092, "hospital": 2902, "load": 7170, "##pre": 28139, "truncated": 25449, "corn": 9781, "##sg": 28745, "readily": 12192, "pic": 27263, "##phic": 17926, "##don": 5280, "##olis": 20872, "gin": 18353, "nutrient": 26780, "differentiate": 21032, "##ena": 8189, "##ety": 27405, "simulation": 12504, "mapping": 12375, "##ner": 3678, "probability": 9723, "dimensional": 8789, "detail": 6987, "relation": 7189, "brains": 14332, "##rce": 19170, "interference": 11099, "gold": 2751, "particle": 10811, "fan": 5470, "ensure": 5676, "##ll": 3363, "##ically": 15004, "parameter": 16381, "caf": 24689, "alzheimer": 21901, "organism": 15923, "fruit": 5909, "##sed": 6924, "##ised": 5084, "##rmin": 27512, "##rim": 20026, "neurological": 23130, "contraction": 21963, "07": 5718, "rest": 2717, "102": 9402, "verify": 20410, "sensory": 16792, "semi": 4100, "phylogenetic": 23192, "remove": 6366, "##ctive": 15277, "adjusted": 10426, "notion": 9366, "hormones": 20752, "##ccus": 27631, "##cel": 29109, "prevalence": 20272, "##atory": 14049, "graf": 22160, "magnitude": 10194, "##ones": 21821, "chosen": 4217, "f1": 20069, "106": 10114, "gag": 18201, "##quest": 15500, "ks": 29535, "hind": 17666, "##pm": 9737, "##gent": 11461, "nine": 3157, "nos": 16839, "serves": 4240, "categories": 7236, "shed": 8328, "ju": 18414, "replaced": 2999, "focal": 15918, "raf": 7148, "incorporation": 16935, "arthritis": 27641, "##asia": 15396, "##deh": 25383, "diffusion": 19241, "toll": 9565, "##zi": 5831, "restore": 9239, "##bation": 23757, "efforts": 4073, "finger": 4344, "za": 23564, "##nn": 10695, "##ening": 7406, "nas": 17235, "##lices": 29146, "##vers": 14028, "ray": 4097, "##ya": 3148, "alan": 5070, "isle": 8842, "concluded": 5531, "backbone": 21505, "copper": 6967, "##ev": 6777, "measuring": 9854, "eventually": 2776, "burden": 10859, "equilibrium": 14442, "hallmark": 25812, "pin": 9231, "situ": 26179, "considerable": 6196, "##tones": 11115, "converted": 4991, "##rial": 14482, "scheme": 5679, "cyclic": 23750, "og": 13958, "produces": 7137, "##rion": 14772, "105": 8746, "opening": 3098, "##cate": 16280, "tightly": 7371, "sequential": 25582, "124": 13412, "easily": 4089, "circulation": 9141, "dim": 11737, "chen": 8802, "##aga": 16098, "111": 11118, "##yra": 19563, "connected": 4198, "##iated": 15070, "ads": 14997, "##his": 24158, "capture": 5425, "competitive": 6975, "aug": 15476, "##pse": 29251, "##ico": 11261, "pip": 28315, "clock": 5119, "extremely": 5186, "implications": 13494, "107": 10550, "believed": 3373, "curves": 10543, "fundamental": 8050, "##ulf": 21007, "assigned": 4137, "##ara": 5400, "bottom": 3953, "xl": 28712, "hk": 22563, "annex": 17827, "committee": 2837, "##au": 4887, "enable": 9585, "always": 2467, "##cot": 24310, "##har": 8167, "##mis": 15630, "exists": 6526, "##ologies": 20792, "photos": 7760, "surfaces": 9972, "protocols": 16744, "chinese": 2822, "viable": 14874, "chamber": 4574, "##dp": 18927, "##ging": 4726, "adding": 5815, "regardless": 7539, "accumulated": 14830, "una": 14477, "magnetic": 8060, "##sol": 19454, "##ue": 5657, "presumably": 10712, "protected": 5123, "ing": 13749, "hepatitis": 28389, "##oria": 11069, "126": 14010, "communication": 4807, "##nate": 12556, "##rod": 14127, "solutions": 7300, "##uz": 17040, "management": 2968, "liu": 8607, "traditional": 3151, "##mon": 8202, "ones": 3924, "rm": 28549, "pivotal": 20369, "##med": 7583, "algorithm": 9896, "export": 9167, "##mos": 15530, "fused": 19660, "hour": 3178, "##logue": 24277, "##ions": 8496, "##mu": 12274, "behaviour": 9164, "varying": 9671, "##yd": 25688, "##tify": 27351, "history": 2381, "bon": 14753, "apical": 29197, "output": 6434, "taking": 2635, "retention": 20125, "proved": 4928, "wa": 11333, "##rdi": 17080, "##ios": 10735, "segments": 9214, "measures": 5761, "deep": 2784, "##usa": 10383, "##pta": 22799, "regime": 6939, "killing": 4288, "##rea": 16416, "rescued": 10148, "conde": 24707, "##ters": 7747, "heavy": 3082, "colonies": 8355, "##bos": 15853, "marks": 6017, "elevation": 6678, "ata": 29533, "era": 3690, "variables": 10857, "laser": 9138, "guide": 5009, "stiff": 10551, "donors": 17843, "partners": 5826, "retained": 6025, "distant": 6802, "gang": 6080, "allergic": 27395, "##ere": 7869, "genetically": 19345, "smoking": 9422, "atoms": 13353, "issue": 3277, "##nz": 14191, "direction": 3257, "##pone": 29513, "##atal": 27815, "##bit": 16313, "116": 12904, "je": 15333, "diagnosed": 11441, "representing": 5052, "faster": 5514, "disrupted": 20275, "km": 2463, "mad": 5506, "parasites": 23996, "09": 5641, "improving": 9229, "sap": 20066, "import": 12324, "contrary": 10043, "partly": 6576, "##lk": 13687, "fiber": 11917, "##hin": 10606, "modest": 10754, "##eur": 11236, "##art": 8445, "tx": 19067, "schizophrenia": 23683, "##yle": 12844, "deviation": 24353, "pam": 14089, "08": 5511, "living": 2542, "##oy": 6977, "epa": 19044, "##nction": 27989, "accuracy": 10640, "junctions": 27169, "conservation": 5680, "eps": 20383, "unpublished": 19106, "larvae": 9673, "proximity": 10039, "derivative": 13819, "likewise": 10655, "##ified": 7810, "distinguish": 10782, "tak": 27006, "mobility": 12969, "roots": 6147, "##ain": 8113, "egg": 8288, "libraries": 8860, "appearance": 3311, "hot": 2980, "##200": 28332, "structurally": 29060, "##urrent": 29264, "national": 2120, "sun": 3103, "task": 4708, "133": 14506, "goat": 13555, "resonance": 17011, "1993": 2857, "diffuse": 28105, "##ious": 6313, "##vera": 26061, "otherwise": 4728, "star": 2732, "introduction": 4955, "##pon": 26029, "assembled": 9240, "abs": 14689, "adhere": 25276, "suspension": 8636, "attached": 4987, "cave": 5430, "aid": 4681, "hoc": 21929, "portion": 4664, "quite": 3243, "instability": 18549, "aromatic": 25496, "sought": 4912, "resting": 8345, "lowest": 7290, "##xia": 14787, "highlighted": 11548, "##ja": 3900, "formal": 5337, "receiving": 4909, "purpose": 3800, "minimum": 6263, "135": 11502, "##ection": 18491, "older": 3080, "155": 14168, "112": 11176, "aero": 18440, "created": 2580, "birth": 4182, "##ning": 5582, "rational": 11581, "oil": 3514, "##db": 18939, "##omi": 20936, "became": 2150, "proven": 10003, "accession": 16993, "comparative": 12596, "imprint": 15738, "decades": 5109, "##rk": 8024, "##ice": 6610, "##nad": 25389, "plaque": 11952, "rms": 29311, "##pad": 15455, "##bid": 17062, "##get": 18150, "chicken": 7975, "##cie": 23402, "addressed": 8280, "emerged": 6003, "##nia": 6200, "##\u2122": 30108, "vary": 8137, "##rl": 12190, "##gli": 25394, "##ete": 12870, "##eh": 11106, "fragmentation": 28424, "declare": 13520, "organic": 7554, "lee": 3389, "enough": 2438, "##bed": 8270, "ry": 29431, "envelope": 11255, "slides": 14816, "\u03c3": 1173, "variance": 23284, "error": 7561, "fewer": 8491, "residual": 21961, "engineered": 13685, "too": 2205, "##llo": 7174, "highlight": 12944, "embedded": 11157, "rot": 18672, "face": 2227, "108": 10715, "interpretation": 7613, "##pic": 24330, "115": 10630, "favor": 5684, "protects": 18227, "thermal": 9829, "##ific": 18513, "118": 12963, "flies": 10029, "undergoing": 14996, "influx": 18050, "deleted": 17159, "cargo": 6636, "unchanged": 15704, "##ye": 6672, "replacement": 6110, "##cus": 7874, "lifespan": 26462, "tight": 4389, "advances": 9849, "urine": 17996, "\u2264": 1608, "artery": 16749, "atom": 13787, "##ssa": 11488, "master": 3040, "pneumonia": 18583, "nap": 18996, "frequencies": 13139, "randomly": 18154, "silenced": 25030, "saliva": 26308, "biotechnology": 20353, "wu": 8814, "##balance": 26657, "##oin": 28765, "escape": 4019, "brown": 2829, "surgical": 11707, "##fen": 18940, "pop": 3769, "##aton": 22436, "drop": 4530, "malaria": 19132, "fresh": 4840, "##ind": 22254, "##ane": 7231, "pun": 26136, "##sion": 10992, "##nl": 20554, "##nca": 20909, "113": 12104, "combining": 11566, "slight": 7263, "##piration": 16781, "ua": 25423, "128": 11899, "radical": 7490, "##ret": 13465, "##eron": 26534, "##ega": 29107, "##ope": 17635, "##km": 22287, "##gna": 16989, "##atics": 17592, "cavity": 17790, "##vac": 24887, "quad": 17718, "benefits": 6666, "associate": 5482, "accurate": 8321, "smoke": 5610, "##dar": 7662, "unlikely": 9832, "false": 6270, "illustrated": 7203, "exclude": 23329, "laboratories": 12030, "parts": 3033, "antibiotics": 24479, "stresses": 23253, "eng": 25540, "109": 11518, "consider": 5136, "yielded": 17544, "var": 13075, "triggering": 29170, "123": 13138, "##rid": 14615, "trap": 8132, "apart": 4237, "##kk": 19658, "recovered": 6757, "studying": 5702, "##ke": 3489, "mala": 28935, "carriers": 11363, "pas": 14674, "expanded": 4423, "driving": 4439, "ongoing": 7552, "establishment": 5069, "degraded": 26131, "counts": 9294, "delta": 7160, "reasons": 4436, "tandem": 18231, "prone": 13047, "black": 2304, "##ist": 2923, "countries": 3032, "##mate": 8585, "##bron": 21337, "frame": 4853, "plc": 15492, "##ivate": 21466, "modules": 14184, "##rco": 29566, "databases": 17881, "##vity": 24872, "salmon": 11840, "empty": 4064, "##ont": 12162, "kim": 5035, "##org": 21759, "preference": 12157, "127": 13029, "visible": 5710, "challenges": 7860, "##cher": 7474, "tune": 8694, "##link": 13767, "wo": 24185, "institute": 2820, "amid": 13463, "sea": 2712, "##rta": 13320, "dramatic": 6918, "##elles": 22869, "reproductive": 15124, "##gga": 23033, "pub": 9047, "ll": 2222, "largest": 2922, "presenting": 10886, "##hic": 16066, "##ual": 8787, "elimination": 9614, "138": 15028, "##ties": 7368, "count": 4175, "vessel": 6258, "project": 2622, "##vent": 15338, "##try": 11129, "ren": 14916, "##cm": 27487, "interfering": 24324, "recommended": 6749, "property": 3200, "gland": 25320, "altering": 22552, "132": 14078, "route": 2799, "pig": 10369, "gale": 14554, "##rug": 26549, "##uation": 14505, "##tech": 15007, "##emi": 23238, "questions": 3980, "snail": 10879, "naturally": 8100, "tables": 7251, "accelerated": 14613, "potassium": 18044, "##ona": 7856, "plaques": 28487, "attractive": 8702, "optical": 9380, "effectiveness": 12353, "##rup": 21531, "##lim": 17960, "##nce": 5897, "originally": 2761, "145": 13741, "valuable": 7070, "speed": 3177, "meanwhile": 5564, "lanes": 10914, "evolved": 7964, "behaviors": 15592, "##iating": 15370, "coefficient": 19064, "anterior": 15099, "pull": 4139, "114": 12457, "powerful": 3928, "inactivated": 15663, "leak": 17271, "simultaneous": 17424, "absolute": 7619, "hearts": 8072, "replica": 15059, "vt": 28879, "##for": 29278, "resident": 6319, "systematic": 11778, "reflected": 7686, "objective": 7863, "renewal": 14524, "month": 3204, "copies": 4809, "119": 13285, "alleviate": 24251, "reflects": 11138, "evidenced": 21328, "##oked": 23461, "##hosis": 25229, "det": 20010, "favorable": 11119, "##gn": 16206, "screened": 12238, "discuss": 6848, "##het": 27065, "chloride": 19057, "##tm": 21246, "deprivation": 29516, "arterial": 25543, "##ntal": 15758, "decay": 13121, "arise": 13368, "unaffected": 24720, "amin": 24432, "stereo": 12991, "##ously": 13453, "##mg": 24798, "enables": 12939, "incorporated": 5100, "coverage": 6325, "##mous": 27711, "absorb": 16888, "als": 25520, "##hg": 25619, "conflict": 4736, "mil": 23689, "corresponds": 14788, "actively": 8851, "frozen": 7708, "niche": 18111, "goal": 3125, "dissolved": 8314, "fission": 27521, "predominant": 21047, "layers": 9014, "traits": 12955, "##att": 19321, "emission": 15760, "##itors": 27287, "gave": 2435, "121": 12606, "##pathic": 25940, "117": 12567, "##lus": 7393, "equation": 8522, "##llus": 20159, "exception": 6453, "##ryl": 23320, "create": 3443, "ubiquitous": 28498, "##non": 8540, "immature": 26838, "supply": 4425, "uses": 3594, "starvation": 22611, "predictions": 20932, "thickness": 14983, "##ergy": 24395, "investigating": 11538, "##ish": 4509, "preliminary": 8824, "superfamily": 24169, "pigment": 28815, "clarify": 25037, "ltd": 5183, "##grad": 16307, "patch": 8983, "##cted": 10985, "wash": 9378, "constitute": 12346, "insect": 14211, "dead": 2757, "##growth": 26982, "##sel": 11246, "filter": 11307, "mag": 23848, "slower": 12430, "washing": 12699, "eliminate": 11027, "pigs": 14695, "##bor": 12821, "sync": 26351, "resolved": 10395, "assumed": 5071, "##ita": 6590, "143": 16065, "##sco": 9363, "xp": 26726, "coordinated": 14206, "depth": 5995, "##gh": 5603, "600": 5174, "principal": 4054, "tree": 3392, "problems": 3471, "##ang": 5654, "raised": 2992, "worse": 4788, "chop": 24494, "##hing": 12053, "ile": 17869, "flexibility": 16991, "clade": 21697, "student": 3076, "fork": 9292, "recruit": 13024, "crypt": 19888, "##path": 15069, "##carbon": 26190, "physiology": 16127, "##sas": 20939, "##lein": 19856, "incomplete": 12958, "varied": 9426, "reliable": 10539, "ran": 2743, "limitation": 22718, "links": 6971, "zone": 4224, "gradually": 6360, "noise": 5005, "##lian": 15204, "##fk": 24316, "changing": 5278, "tea": 5572, "stabilized": 27697, "glass": 3221, "indo": 11424, "premature": 21371, "flexible": 12379, "##ah": 4430, "##mpt": 27718, "carry": 4287, "remarkable": 9487, "##ife": 29323, "comprising": 9605, "##tial": 20925, "actually": 2941, "##cule": 21225, "success": 3112, "##mann": 5804, "##kali": 28613, "##vr": 19716, "indicative": 24668, "sizes": 10826, "parent": 6687, "apparently": 4593, "signs": 5751, "timing": 10984, "##ffin": 15379, "roche": 20162, "vo": 29536, "ara": 19027, "excellent": 6581, "manifestation": 24491, "facilitating": 25505, "ways": 3971, "belonging": 7495, "##ages": 13923, "bases": 7888, "contents": 8417, "sorting": 22210, "##hp": 22269, "bea": 26892, "dry": 4318, "safe": 3647, "##xt": 18413, "bf": 28939, "forces": 2749, "accept": 5138, "##ste": 13473, "##phine": 20738, "131": 14677, "improves": 24840, "##lino": 25226, "fashion": 4827, "##mation": 28649, "##nor": 12131, "concentrated": 8279, "eye": 3239, "widespread": 6923, "tar": 16985, "guidelines": 11594, "wave": 4400, "##oic": 19419, "##rem": 28578, "pure": 5760, "partner": 4256, "parkinson": 20310, "prc": 26141, "##play": 13068, "148": 16459, "coil": 17085, "fine": 2986, "engineering": 3330, "##ver": 6299, "altogether": 10462, "##rogate": 21799, "rode": 8469, "##lch": 29358, "##more": 5974, "##iste": 27870, "##wa": 4213, "sting": 12072, "carrier": 6839, "participates": 17257, "takes": 3138, "stop": 2644, "extend": 7949, "chemicals": 12141, "artificial": 7976, "##ries": 5134, "##nal": 12032, "beginning": 2927, "##llation": 20382, "##lani": 21141, "kept": 2921, "##ensis": 9911, "##ffer": 12494, "cot": 26046, "doc": 9986, "tan": 9092, "nonetheless": 9690, "##vc": 25465, "mas": 16137, "##ichi": 11319, "signatures": 16442, "yo": 10930, "theory": 3399, "break": 3338, "away": 2185, "eva": 9345, "hub": 9594, "##ssi": 18719, "sera": 26358, "##eri": 11124, "functionality": 15380, "specialized": 7772, "trace": 7637, "##ker": 5484, "fra": 25312, "advantages": 12637, "estimate": 10197, "##uke": 15851, "1992": 2826, "##elli": 13348, "paradigm": 20680, "matter": 3043, "gender": 5907, "##rka": 22379, "##ject": 20614, "interval": 13483, "transforming": 17903, "##tf": 24475, "##ill": 8591, "neck": 3300, "bet": 6655, "##sr": 21338, "percent": 3867, "manipulation": 16924, "##kis": 14270, "din": 11586, "insufficient": 13990, "##cb": 27421, "tuberculosis": 15877, "coordination": 12016, "yang": 8675, "##lastic": 28723, "##brate": 22008, "##oning": 13369, "cult": 8754, "scanning": 13722, "poole": 19107, "displays": 8834, "##rogated": 26565, "maps": 7341, "##ining": 24002, "##hal": 8865, "joint": 4101, "fda": 17473, "continued": 2506, "##hog": 25852, "louis": 3434, "mix": 4666, "surprising": 11341, "wheat": 10500, "destruction": 6215, "##entation": 19304, "##point": 8400, "die": 3280, "utilization": 27891, "owing": 11427, "##stra": 20528, "situation": 3663, "prism": 26113, "functioning": 12285, "##folding": 21508, "accessible": 7801, "##\u03bc": 29728, "\u03bb": 1165, "##cam": 28727, "experience": 3325, "superior": 6020, "programmed": 16984, "##oki": 23212, "##dl": 19422, "lap": 5001, "##itive": 13043, "disco": 12532, "##sing": 7741, "exit": 6164, "underwent": 9601, "similarities": 12319, "##ciency": 29125, "##moto": 15319, "tend": 7166, "tobacco": 9098, "180": 8380, "lacks": 14087, "posterior": 15219, "indicator": 17245, "serious": 3809, "huh": 9616, "possesses": 14882, "##lled": 11001, "##pine": 19265, "##vu": 19722, "bridge": 2958, "periphery": 23275, "challenging": 10368, "severely": 8949, "insert": 19274, "interventions": 19388, "hit": 2718, "mineral": 9754, "accelerate": 23306, "ventral": 23420, "##ence": 10127, "fk": 14352, "##uring": 12228, "##ber": 5677, "programs": 3454, "belong": 7141, "ny": 6396, "146": 16333, "package": 7427, "circuit": 4984, "miss": 3335, "##stan": 12693, "presents": 7534, "##ped": 5669, "modify": 19933, "science": 2671, "ami": 26445, "##systems": 29390, "former": 2280, "fx": 23292, "139": 16621, "spp": 26924, "modes": 11583, "ky": 18712, "filtered": 21839, "tom": 3419, "analyzing": 20253, "separately": 10329, "##\u2206": 30122, "category": 4696, "delivered": 5359, "slices": 25609, "rule": 3627, "working": 2551, "##ix": 7646, "choice": 3601, "increasingly": 6233, "labelled": 18251, "cow": 11190, "arch": 7905, "confidence": 7023, "irs": 25760, "raft": 21298, "belongs": 7460, "substances": 13978, "united": 2142, "##sca": 15782, "aurora": 13158, "arrays": 27448, "##well": 4381, "##ired": 27559, "modifying": 29226, "exclusion": 15945, "periods": 6993, "##talk": 28014, "house": 2160, "https": 16770, "##ista": 11921, "gem": 17070, "##rano": 20770, "compact": 9233, "##tia": 10711, "sampling": 16227, "competition": 2971, "settings": 10906, "code": 3642, "clustered": 25221, "bat": 7151, "norm": 13373, "##ws": 9333, "asked": 2356, "shifts": 12363, "edge": 3341, "##was": 17311, "##oche": 23555, "thin": 4857, "##dia": 9032, "considerably": 9839, "lesser": 8276, "additive": 29167, "breaks": 7807, "minimize": 18478, "temperatures": 7715, "yellow": 3756, "conditioned": 22442, "implying": 20242, "yu": 9805, "brief": 4766, "plot": 5436, "rodents": 28156, "alexa": 24969, "inserted": 12889, "##iss": 14643, "dried": 9550, "counted": 8897, "yields": 16189, "window": 3332, "##ger": 4590, "persist": 29486, "accepted": 3970, "134": 15170, "captured": 4110, "performing": 4488, "##gam": 22864, "##cence": 29320, "duct": 23245, "dat": 23755, "essentially": 7687, "##ense": 16700, "##bly": 6321, "mps": 12616, "capability": 10673, "##odies": 27391, "##brates": 25258, "anchor": 8133, "offer": 3749, "mw": 12464, "seeds": 8079, "weaker": 15863, "##actic": 28804, "##400": 29537, "implies": 12748, "formulation": 20219, "spectroscopy": 25458, "worth": 4276, "simply": 3432, "##wise": 14244, "carl": 5529, "preparations": 12929, "posts": 8466, "##ej": 20518, "equally": 8053, "reader": 8068, "##ute": 10421, "wb": 25610, "bile": 23974, "critically": 11321, "healthcare": 9871, "issues": 3314, "initiating": 26616, "##hra": 13492, "##als": 9777, "144": 14748, "passive": 13135, "##erted": 28728, "fatigue": 16342, "motion": 4367, "locations": 5269, "construction": 2810, "apparatus": 14709, "##ald": 19058, "vein": 12818, "##oo": 9541, "##mania": 27010, "137": 14989, "concerning": 7175, "##tera": 14621, "##sable": 19150, "tubular": 25147, "##ou": 7140, "themselves": 3209, "detrimental": 29172, "comprised": 11539, "eh": 15501, "##quent": 15417, "thick": 4317, "special": 2569, "subfamily": 10946, "##ade": 9648, "compromised": 20419, "chemistry": 6370, "facilitated": 19601, "albeit": 12167, "practice": 3218, "##rus": 7946, "controversial": 6801, "recycling": 17874, "une": 16655, "tap": 11112, "prep": 17463, "tbs": 29584, "##uli": 15859, "##mission": 25481, "prevalent": 15157, "radicals": 23618, "environments": 10058, "soft": 3730, "relaxation": 23370, "##table": 10880, "##ination": 12758, "damp": 10620, "##lun": 26896, "##oper": 25918, "##iology": 20569, "phd": 8065, "catalyst": 16771, "cocktail": 18901, "profound": 13769, "##ivar": 28739, "driver": 4062, "circular": 8206, "public": 2270, "##ik": 5480, "configuration": 9563, "pump": 10216, "##cis": 22987, "complicated": 8552, "##adi": 17190, "142": 16087, "monitor": 8080, "substituted": 17316, "shifted": 5429, "string": 5164, "##ich": 7033, "correspond": 17254, "neighboring": 8581, "appendix": 22524, "##lies": 11983, "##kal": 12902, "##tation": 12516, "contributions": 5857, "conditional": 18462, "counterparts": 14562, "associates": 9228, "colonization": 18962, "nutritional": 28268, "fore": 18921, "##gan": 5289, "examining": 12843, "missing": 4394, "##nx": 26807, "##aru": 15728, "fix": 8081, "panels": 9320, "##nge": 15465, "unfortunately": 6854, "mca": 22432, "##card": 11522, "litter": 19070, "intense": 6387, "##lie": 8751, "generates": 19421, "deaths": 6677, "##\u03b5": 29723, "##uda": 14066, "causal": 28102, "closure": 8503, "##bino": 21891, "purity": 18433, "gov": 18079, "##hid": 27511, "persistence": 28297, "restoration": 6418, "connection": 4434, "limits": 6537, "##side": 7363, "##\u00ae": 29656, "ideal": 7812, "ems": 29031, "reaching": 4285, "immediate": 6234, "come": 2272, "##nami": 28987, "challenged": 8315, "mark": 2928, "flowering": 10902, "##rag": 29181, "223": 20802, "|": 1064, "principle": 6958, "warrant": 10943, "##inate": 14776, "##cope": 16186, "##sal": 12002, "migrate": 22806, "requirements": 5918, "dementia": 28767, "adapted": 5967, "##ana": 5162, "mar": 9388, "exhibiting": 22922, "##tative": 27453, "spots": 7516, "nutrients": 20435, "##net": 7159, "groove": 14100, "aspect": 7814, "played": 2209, "141": 15471, "tata": 23236, "cues": 23391, "aligned": 13115, "rage": 7385, "##rated": 9250, "wells": 7051, "rings": 7635, "##ass": 12054, "kai": 11928, "shaped": 5044, "##dic": 14808, "drives": 9297, "mhz": 11413, "##quil": 26147, "emergence": 14053, "started": 2318, "tags": 22073, "geo": 20248, "comprises": 8681, "bin": 8026, "grow": 4982, "##cture": 14890, "##jun": 19792, "bulk": 9625, "##yce": 29297, "136": 15407, "fields": 4249, "connectivity": 20831, "mock": 12934, "nasal": 19077, "island": 2479, "cassette": 13903, "##ak": 4817, "spot": 3962, "##position": 26994, "##sper": 17668, "sole": 7082, "strands": 14119, "financial": 3361, "sensors": 13907, "aaa": 13360, "distributions": 20611, "consisted": 5031, "fourth": 2959, "prospective": 17464, "redundant": 21707, "detecting": 25952, "pcs": 27019, "cooperative": 10791, "never": 2196, "whereby": 13557, "corrected": 13371, "##shi": 6182, "ud": 20904, "arc": 8115, "releasing": 8287, "european": 2647, "vin": 19354, "utilizing": 16911, "shanghai": 8344, "expect": 5987, "##oder": 27381, "nude": 15287, "luc": 12776, "##qu": 28940, "contra": 24528, "exponential": 27258, "##hea": 20192, "undergoes": 29129, "passage": 6019, "ok": 7929, "##lly": 9215, "1991": 2889, "consideration": 9584, "adopt": 11092, "correction": 18140, "round": 2461, "##nin": 11483, "##bia": 11607, "##mona": 21781, "210": 12875, "##bes": 12681, "infants": 16725, "##mut": 28120, "psi": 17816, "obviously": 5525, "##lent": 16136, "repertoire": 13646, "##dation": 20207, "ionic": 24774, "predicting": 29458, "450": 10332, "gall": 26033, "flanking": 24958, "intern": 25204, "##nary": 24041, "spreading": 9359, "1990": 2901, "##icles": 20921, "noteworthy": 19144, "pad": 11687, "##long": 10052, "pulse": 8187, "##sms": 19230, "agile": 29003, "##dt": 11927, "convert": 10463, "refer": 6523, "recognizes": 14600, "highlights": 11637, "##hri": 26378, "depicted": 8212, "duplicate": 24473, "##rator": 16259, "##hot": 12326, "ned": 12311, "promotion": 4712, "160": 8148, "rigid": 11841, "utility": 9710, "notable": 3862, "differs": 12980, "technical": 4087, "users": 5198, "regarded": 5240, "infant": 10527, "151": 16528, "analogous": 19639, "##cas": 15671, "##cula": 19879, "assessing": 20077, "##erine": 24226, "tension": 6980, "##ony": 16585, "##hip": 5605, "##less": 3238, "##bot": 18384, "wr": 23277, "odor": 19255, "eco": 17338, "lux": 28359, "dub": 12931, "##zd": 26494, "branch": 3589, "##zone": 15975, "cast": 3459, "individually": 14258, "switching": 11991, "##lib": 29521, "elderly": 9750, "competing": 6637, "800": 5385, "##plate": 15725, "formula": 5675, "satellite": 5871, "##yne": 9654, "##rum": 6824, "hosts": 6184, "relies": 16803, "analytical": 17826, "infiltrate": 29543, "differently": 11543, "reading": 3752, "evaluating": 23208, "migratory": 22262, "theoretical": 9373, "zero": 5717, "actual": 5025, "accessibility": 23661, "##lan": 5802, "##gina": 20876, "walt": 10598, "regular": 3180, "nic": 27969, "kind": 2785, "scan": 13594, "nash": 10594, "unrelated": 15142, "##nh": 25311, "##than": 21604, "electrical": 5992, "calculate": 18422, "injured": 5229, "name": 2171, "##ong": 5063, "computed": 24806, "##asi": 21369, "##ort": 11589, "##rval": 26585, "##berg": 4059, "##uf": 16093, "wing": 3358, "physically": 8186, "##hn": 7295, "##lings": 11227, "##eva": 13331, "paternal": 15112, "##meter": 22828, "alt": 12456, "somewhat": 5399, "##ains": 28247, "crystals": 14438, "american": 2137, "representation": 6630, "applying": 11243, "maize": 21154, "speculated": 15520, "augmented": 19335, "broadly": 13644, "perspective": 7339, "##tile": 15286, "intervals": 14025, "##yal": 21095, "inability": 13720, "##ata": 6790, "decade": 5476, "coordinate": 13530, "transported": 9687, "options": 7047, "gives": 3957, "spike": 9997, "rely": 11160, "##ris": 6935, "slowly": 3254, "desired": 9059, "autonomous": 8392, "sign": 3696, "\u2022": 1528, "fall": 2991, "##wee": 28394, "covers": 4472, "limb": 15291, "##xide": 19491, "ssr": 20896, "designated": 4351, "pairing": 22778, "enabled": 9124, "##gens": 21230, "lim": 18525, "bay": 3016, "origins": 7321, "bai": 21790, "pup": 26781, "mega": 13164, "scenario": 11967, "transform": 10938, "consecutive": 5486, "##lium": 21816, "protecting": 8650, "attack": 2886, "hydra": 26018, "repetitive": 23563, "##orin": 28741, "##tly": 14626, "reasonable": 9608, "sterile": 25403, "firstly": 15847, "vr": 27830, "arteries": 28915, "usage": 8192, "survive": 5788, "##inas": 15227, "electrode": 28688, "bleeding": 9524, "bid": 7226, "nes": 24524, "##ibe": 20755, "##cated": 12921, "##thal": 24090, "fen": 21713, "call": 2655, "##vary": 21639, "reflecting": 10842, "workers": 3667, "##gni": 29076, "bk": 23923, "batch": 14108, "##ional": 19301, "imply": 19515, "serial": 7642, "lowering": 13845, "web": 4773, "pregnant": 6875, "reversal": 23163, "experienced": 5281, "##uen": 24997, "##port": 6442, "##station": 20100, "completed": 2949, "##bh": 23706, "breakdown": 12554, "unfolded": 23959, "war": 2162, "quickly": 2855, "description": 6412, "##agi": 22974, "firing": 7493, "##lid": 21273, "##aca": 19629, "##ural": 11137, "compatible": 11892, "##eras": 24140, "bacterium": 24024, "sas": 21871, "##eptive": 22048, "engagement": 8147, "##pu": 14289, "##off": 7245, "focusing": 7995, "glands": 23340, "kv": 24888, "##cript": 23235, "tolerated": 25775, "##bell": 17327, "##qua": 16211, "##lion": 18964, "##gus": 12349, "wat": 28194, "enabling": 12067, "##icle": 25128, "vast": 6565, "conclusions": 15306, "##inal": 13290, "quantity": 11712, "adequate": 11706, "##ifier": 18095, "impacts": 14670, "loco": 28046, "rag": 17768, "framework": 7705, "##hmi": 26837, "option": 5724, "cocaine": 16034, "ever": 2412, "##zer": 6290, "193": 19984, "kan": 22827, "translated": 5421, "personal": 3167, "approval": 6226, "mri": 27011, "preferred": 6871, "\u03c0": 1170, "intensive": 11806, "acquire": 9878, "behind": 2369, "angle": 6466, "##factory": 21450, "international": 2248, "calculations": 16268, "necessarily": 9352, "chose": 4900, "locally": 7246, "ada": 15262, "205": 16327, "revealing": 8669, "unexpected": 9223, "lamp": 10437, "##dium": 12811, "know": 2113, "tendency": 11765, "ole": 15589, "reciprocal": 28309, "##tag": 15900, "##load": 11066, "##fers": 24396, "anxiety": 10089, "##aq": 20784, "##cala": 25015, "stretch": 7683, "eliminated": 5892, "152": 15017, "##llary": 24435, "works": 2573, "##itate": 17570, "##all": 8095, "differed": 19541, "talk": 2831, "segregation": 18771, "zip": 14101, "removing": 9268, "consent": 9619, "##hre": 28362, "marine": 3884, "hits": 4978, "sometimes": 2823, "deposited": 14140, "classic": 4438, "community": 2451, "##ire": 7442, "ages": 5535, "##resses": 25932, "cw": 19296, "##ise": 5562, "##hab": 25459, "ira": 11209, "withdrawal": 10534, "propagation": 20594, "easy": 3733, "##imo": 16339, "institutional": 12148, "##hesive": 21579, "##tha": 8322, "wrote": 2626, "reductions": 25006, "lifetime": 6480, "bonding": 19882, "genetics": 14471, "##bank": 9299, "vol": 5285, "##ew": 7974, "##rued": 28551, "implemented": 7528, "establishing": 7411, "sporadic": 24590, "coiled": 24599, "tal": 21368, "fail": 8246, "##metry": 24327, "ethics": 9615, "jc": 29175, "format": 4289, "181": 18596, "xu": 15990, "##mere": 13759, "determines": 16463, "scoring": 4577, "influencing": 25870, "##3d": 29097, "##eal": 15879, "wasp": 19411, "##rra": 11335, "resources": 4219, "##ater": 24932, "proportional": 14267, "comprise": 15821, "psycho": 18224, "##uria": 27703, "massive": 5294, "atomic": 9593, "##vation": 21596, "cone": 13171, "pass": 3413, "##nism": 28113, "informed": 6727, "tubes": 10868, "##ometric": 28993, "mobilization": 25580, "stock": 4518, "rarely": 6524, "##vert": 16874, "weakly": 17541, "sonic": 12728, "##tituted": 29139, "recipient": 7799, "optimization": 20600, "plots": 14811, "worms": 16253, "dense": 9742, "nut": 17490, "##nga": 13807, "degrees": 5445, "competent": 17824, "offers": 4107, "overview": 19184, "calm": 5475, "lengths": 10742, "entirely": 4498, "aka": 9875, "wei": 11417, "##ku": 5283, "##tens": 25808, "fitness": 10516, "##tology": 23479, "dar": 18243, "recruits": 15024, "##mps": 25370, "attempt": 3535, "mobile": 4684, "##liga": 14715, "plausible": 24286, "varies": 9783, "fly": 4875, "##nger": 11392, "dot": 11089, "perception": 10617, "halo": 17201, "assemble": 21365, "continuously": 10843, "termination": 18287, "##iff": 13355, "aforementioned": 17289, "believe": 2903, "##iga": 13340, "##eu": 13765, "distances": 12103, "mx": 25630, "integral": 9897, "##ots": 12868, "ape": 23957, "soy": 25176, "solely": 9578, "##ml": 19968, "border": 3675, "##rri": 18752, "marginal": 14785, "##lov": 14301, "##nare": 26148, "maintains": 9319, "longevity": 26906, "get": 2131, "conjunction": 9595, "huang": 15469, "integrate": 17409, "twenty": 3174, "improvements": 8377, "##lide": 24198, "##rien": 23144, "methodology": 16134, "frames": 11048, "took": 2165, "preserved": 6560, "##ndi": 16089, "ipa": 24531, "\u2192": 1585, "##ester": 20367, "whilst": 5819, "##je": 6460, "##base": 15058, "twist": 9792, "147": 16471, "##ctable": 23576, "##gence": 17905, "rein": 27788, "##eses": 23072, "##usion": 14499, "precisely": 10785, "accounts": 6115, "exclusive": 7262, "##nis": 8977, "##loe": 26846, "##\u2192": 30113, "assume": 7868, "concern": 5142, "connect": 7532, "highlighting": 20655, "universal": 5415, "continue": 3613, "horse": 3586, "##inator": 23207, "##ess": 7971, "##rone": 20793, "resource": 7692, "##bf": 29292, "helps": 7126, "damaging": 15011, "##iri": 15735, "strongest": 10473, "149": 17332, "dq": 25410, "##app": 29098, "##fm": 16715, "##dell": 12662, "confirms": 23283, "abdominal": 21419, "genus": 3562, "##alic": 27072, "pts": 19637, "##acy": 15719, "front": 2392, "accurately": 14125, "dorm": 19568, "venom": 15779, "stationary": 17337, "anne": 4776, "eggs": 6763, "nat": 14085, "benign": 28378, "defining": 12854, "##und": 8630, "arrangement": 6512, "files": 6764, "ore": 10848, "nur": 27617, "snap": 10245, "utilize": 16462, "##elle": 14774, "inherited": 7900, "knocked": 6573, "iq": 26264, "##aea": 21996, "built": 2328, "##tta": 5946, "simulated": 23599, "199": 20713, "messenger": 11981, "volumes": 6702, "extreme": 6034, "plan": 2933, "abilities": 7590, "immortal": 12147, "pearson": 12874, "pak": 22190, "##rou": 22494, "##ncies": 14767, "##pac": 19498, "sheet": 7123, "assumption": 11213, "dice": 18740, "dan": 4907, "pyramid": 11918, "match": 2674, "ahl": 18347, "dam": 5477, "prove": 6011, "lived": 2973, "bypass": 11826, "crude": 13587, "##mura": 16069, "##fus": 25608, "##row": 10524, "dial": 13764, "lens": 10014, "##ments": 8163, "interpreted": 10009, "##eft": 29218, "building": 2311, "##oles": 29111, "checked": 7039, "sciences": 4163, "##nging": 22373, "153": 16710, "170": 10894, "##ud": 6784, "pat": 6986, "cambridge": 4729, "migrating": 28636, "shell": 5806, "lame": 20342, "exploited": 18516, "definition": 6210, "stressed": 13233, "fever": 9016, "unless": 4983, "mosquito": 22529, "154": 16666, "weights": 15871, "##king": 6834, "bad": 2919, "diego": 5277, "spectral": 17435, "suspended": 6731, "requiring": 9034, "##ach": 6776, "##tance": 26897, "##phon": 20846, "rose": 3123, "dog": 3899, "mother": 2388, "effort": 3947, "feed": 5438, "pharmaceutical": 13859, "sorted": 19616, "closer": 3553, "branching": 23346, "gdp": 14230, "covered": 3139, "aldo": 28163, "giving": 3228, "pollen": 22482, "microscopic": 26396, "gained": 4227, "kill": 3102, "noticed": 4384, "herb": 12810, "##mini": 25300, "polymers": 27216, "displaying": 14962, "##bine": 16765, "energetic": 18114, "african": 3060, "wavelength": 19934, "pink": 5061, "machine": 3698, "dod": 26489, "greatest": 4602, "shear": 18330, "pools": 12679, "fluctuations": 28892, "width": 9381, "estimates": 10035, "uniform": 6375, "consist": 8676, "214": 19936, "commercially": 11088, "rom": 17083, "restrict": 21573, "receive": 4374, "subtle": 11259, "elusive": 26475, "##we": 8545, "race": 2679, "compete": 5566, "publication": 4772, "das": 8695, "saturated": 23489, "render": 17552, "cai": 29080, "height": 4578, "##nna": 9516, "discussion": 6594, "stomach": 4308, "##sar": 10286, "##obe": 20891, "proof": 6947, "##hom": 23393, "sheep": 8351, "positioned": 10959, "she": 2016, "employing": 15440, "##achi": 21046, "capsule": 18269, "##missive": 27876, "comb": 22863, "landscape": 5957, "reviews": 4391, "frontal": 19124, "creating": 4526, "ache": 12336, "##ifiers": 28295, "##bolic": 18647, "topical": 25665, "##els": 9050, "mig": 19117, "move": 2693, "##liner": 20660, "##flow": 12314, "prompted": 9469, "bow": 6812, "lean": 8155, "patches": 13864, "displacement": 13508, "\u03b5": 1159, "roc": 21326, "killer": 6359, "##physical": 23302, "##scopic": 24895, "positioning": 19120, "trauma": 12603, "surveillance": 9867, "api": 17928, "hierarchical": 25835, "childhood": 5593, "deliver": 8116, "##out": 5833, "##uni": 19496, "##rov": 12298, "##yk": 15922, "arid": 17511, "precision": 11718, "nest": 9089, "inform": 12367, "##bre": 13578, "##monium": 26387, "##ek": 5937, "##hh": 23644, "##ulus": 11627, "nah": 20976, "##sities": 24279, "attempts": 4740, "sponge": 25742, "reporting": 7316, "garlic": 20548, "##cise": 18380, "blunt": 14969, "strictly": 9975, "keeping": 4363, "ups": 11139, "fitting": 11414, "##sk": 6711, "ranged": 15844, "196": 20035, "served": 2366, "##enia": 19825, "branched": 21648, "mai": 14736, "##ache": 15395, "seemed": 2790, "dock": 8946, "newborn": 20662, "humor": 8562, "##ier": 3771, "##hae": 25293, "candi": 27467, "raises": 13275, "unstable": 14480, "device": 5080, "stated": 3090, "##mad": 25666, "##ars": 11650, "##rip": 29443, "rim": 11418, "substance": 9415, "participated": 4194, "##ard": 4232, "harmful": 17631, "draw": 4009, "organized": 4114, "165": 13913, "##pet": 22327, "contexts": 18046, "##pher": 27921, "square": 2675, "##ping": 4691, "words": 2616, "uncover": 26944, "sulfur": 17864, "suffering": 6114, "radial": 15255, "connections": 7264, "158": 17696, "##class": 26266, "attempted": 4692, "span": 8487, "##bular": 28808, "kn": 14161, "##ibly": 17296, "##led": 3709, "rotation": 9963, "1989": 2960, "statistics": 6747, "inherent": 16112, "testosterone": 25937, "islands": 3470, "##ul": 5313, "##mac": 22911, "purposes": 5682, "##cision": 28472, "sister": 2905, "errors": 10697, "\u03c9": 1179, "reward": 10377, "##front": 12792, "opportunity": 4495, "##azi": 16103, "velocity": 10146, "platinum": 8899, "jan": 5553, "##bate": 20179, "resin": 24604, "expand": 7818, "burst": 6532, "##lde": 17920, "mixing": 6809, "##gating": 16961, "compensate": 19079, "lasting": 9879, "becoming": 3352, "arms": 2608, "##lina": 13786, "##mel": 10199, "retain": 9279, "##hema": 28433, "157": 17403, "build": 3857, "##bella": 21700, "##bound": 15494, "movements": 5750, "sexual": 4424, "##gut": 27920, "##ior": 25346, "##git": 23806, "equipped": 6055, "died": 2351, "##wo": 12155, "cycling": 9670, "coordinates": 12093, "##mur": 20136, "##vor": 14550, "folded": 6999, "rod": 8473, "ranges": 8483, "discrete": 16246, "nik": 23205, "picture": 3861, "fertility": 17376, "##ented": 14088, "unusual": 5866, "156": 16734, "grouped": 15131, "lobe": 21833, "contamination": 18701, "##rma": 17830, "##cum": 24894, "##quisite": 24871, "han": 7658, "ops": 23092, "##ui": 10179, "split": 3975, "##hwa": 18663, "algorithms": 13792, "demand": 5157, "automated": 12978, "longitudinal": 20134, "192": 17613, "##bt": 19279, "rfc": 14645, "versa": 18601, "##onic": 12356, "spat": 14690, "arrested": 4727, "concerns": 5936, "##tz": 5753, "pediatric": 23614, "rca": 12639, "circuits": 13782, "##ifer": 23780, "soil": 5800, "fitted": 7130, "constitutes": 17367, "likelihood": 16593, "carefully": 5362, "fatal": 10611, "check": 4638, "opposing": 10078, "bam": 25307, "nitrate": 29607, "##vd": 16872, "applicable": 12711, "##old": 11614, "coincide": 19680, "transmitted": 11860, "meg": 12669, "cumulative": 23260, "##uter": 19901, "players": 2867, "##any": 19092, "piper": 11939, "spine": 8560, "adopted": 4233, "written": 2517, "168": 16923, "tomato": 20856, "decided": 2787, "bilateral": 17758, "recruiting": 14357, "prem": 26563, "pole": 6536, "insects": 9728, "##sil": 27572, "grain": 8982, "##lau": 17298, "##graphic": 14773, "seizures": 25750, "explains": 7607, "##aud": 19513, "freshly": 20229, "##ede": 14728, "terminals": 17703, "spanning": 13912, "transitions": 22166, "investigators": 14766, "5000": 13509, "##gua": 19696, "assisted": 7197, "shares": 6661, "elsewhere": 6974, "virtually": 8990, "indication": 12407, "arrow": 8612, "boost": 12992, "##nated": 23854, "##ust": 19966, "161": 17365, "zhou": 14367, "mounted": 5614, "tails": 17448, "forks": 19896, "concert": 4164, "##xx": 20348, "##ctors": 24817, "biomass": 28148, "mia": 8764, "comes": 3310, "playing": 2652, "##case": 18382, "default": 12398, "thereafter": 6920, "platforms": 7248, "max": 4098, "edges": 7926, "##hore": 16892, "sharp": 4629, "opposed": 4941, "##nar": 11802, "moderately": 17844, "topology": 19587, "properly": 7919, "primate": 25662, "dig": 10667, "portal": 9445, "distinguished": 5182, "manifest": 19676, "##ography": 9888, "m3": 29061, "##ads": 19303, "converge": 28314, "narrow": 4867, "##bus": 8286, "doi": 9193, "##orf": 16347, "##wt": 26677, "##ull": 18083, "sang": 6369, "##ving": 6455, "mental": 5177, "##tet": 22513, "lie": 4682, "700": 6352, "##geny": 17487, "calculation": 17208, "inputs": 20407, "gray": 3897, "hop": 6154, "cpc": 28569, "tolerant": 23691, "##ois": 10054, "searched": 9022, "##unda": 18426, "chow": 20209, "alternate": 6585, "exploration": 8993, "##ilis": 24411, "##pres": 28994, "dad": 3611, "##ened": 6675, "responding": 14120, "##rel": 16570, "tab": 21628, "##athy": 17308, "##fur": 27942, "phenomena": 13352, "1988": 2997, "reservoir": 8071, "deng": 26957, "350": 8698, "penetration": 20015, "medicinal": 20632, "mrs": 3680, "##tain": 18249, "##hel": 16001, "bruce": 5503, "cbs": 6568, "##uity": 18518, "plotted": 27347, "pest": 20739, "lastly": 22267, "counting": 10320, "afl": 10028, "##dev": 24844, "ripe": 22503, "yielding": 21336, "##igate": 28731, "eyes": 2159, "##script": 22483, "describes": 5577, "159": 18914, "converting": 16401, "devices": 5733, "congenital": 27480, "##udi": 21041, "sustain": 15770, "running": 2770, "coefficients": 21374, "##ginal": 24965, "##kers": 11451, "##uss": 17854, "kaplan": 22990, "radios": 22229, "directional": 20396, "##llar": 17305, "##ipe": 15457, "##lak": 23451, "articles": 4790, "illustrate": 19141, "estimation": 24155, "##ogical": 20734, "##raz": 20409, "south": 2148, "definitive": 15764, "##gible": 18507, "cooperate": 17654, "amongst": 5921, "##head": 4974, "routes": 5847, "sufficiently": 12949, "##ered": 6850, "##mates": 15416, "cfa": 28125, "recognizing": 14622, "muller": 12304, "##\u03c6": 29736, "coat": 5435, "coating": 18898, "decision": 3247, "lowered": 6668, "##bar": 8237, "hal": 11085, "##sum": 17421, "promise": 4872, "thor": 15321, "##tte": 4674, "pointed": 4197, "arising": 17707, "trends": 12878, "submitted": 7864, "320": 13710, "humid": 14178, "cultivation": 13142, "uncovered": 14486, "solved": 13332, "collective": 7268, "pga": 14198, "recordings": 5633, "silence": 4223, "fluids": 20989, "dent": 21418, "powder": 9898, "tailed": 14578, "progressively": 20519, "leg": 4190, "##nsor": 29577, "##inated": 15833, "participation": 6577, "feasible": 22945, "##tem": 18532, "writing": 3015, "##rist": 15061, "##tite": 23096, "clarified": 20485, "globally": 16452, "centers": 6401, "##ux": 5602, "spontaneously": 27491, "##nous": 18674, "medial": 23828, "3000": 11910, "##itia": 29050, "##culture": 14561, "##thesis": 25078, "scattering": 17501, "dogs": 6077, "bath": 7198, "##not": 17048, "##ols": 27896, "regional": 3164, "ave": 13642, "characterised": 17253, "matching": 9844, "describing": 7851, "atlas": 11568, "accounting": 9529, "npr": 21411, "anatomical": 28141, "bait": 17395, "barriers": 13500, "roi": 25223, "\u03c4": 1174, "identifies": 14847, "tokyo": 5522, "constituents": 24355, "expresses": 16783, "biomedical": 20906, "tad": 18819, "##burg": 4645, "##rys": 24769, "gross": 7977, "tended": 11121, "trained": 4738, "foreign": 3097, "##ski": 5488, "static": 10763, "metals": 11970, "##has": 14949, "reorganization": 17118, "afford": 8984, "{": 1063, "silent": 4333, "##ering": 7999, "biased": 25352, "department": 2533, "flex": 23951, "folds": 15439, "##roi": 26692, "breeding": 8119, "exploring": 11131, "cong": 26478, "##wr": 13088, "jo": 8183, "167": 16785, "##zine": 21254, "object": 4874, "scar": 11228, "killed": 2730, "broader": 12368, "elk": 18995, "##sive": 12742, "productive": 13318, "unexpectedly": 14153, "specification": 12827, "mating": 15100, "}": 1065, "ordered": 3641, "hundreds": 5606, "dividing": 16023, "ethical": 12962, "trait": 18275, "ji": 10147, "##rino": 17815, "como": 18609, "##sur": 26210, "inward": 20546, "##pment": 24073, "##use": 8557, "##morphic": 18078, "175": 12862, "arsenic": 29596, "standards": 4781, "##js": 22578, "digital": 3617, "droplets": 27126, "text": 3793, "163": 17867, "##open": 26915, "fruits": 10962, "younger": 3920, "adulthood": 20480, "server": 8241, "recess": 28290, "quantities": 12450, "##ieu": 17301, "modeled": 14440, "##iro": 9711, "172": 18253, "##uating": 24133, "instrument": 6602, "von": 3854, "212": 18164, "pea": 26034, "resolve": 10663, "##mx": 22984, "##aling": 21682, "spite": 8741, "hen": 21863, "slit": 18036, "muscular": 13472, "apply": 6611, "##rich": 13149, "occupied": 4548, "operated": 3498, "##mir": 14503, "##abe": 16336, "west": 2225, "##tara": 27115, "lewis": 4572, "elongated": 17876, "basement": 8102, "conferred": 15186, "foot": 3329, "##cts": 16649, "atmosphere": 7224, "sacrificed": 20268, "forced": 3140, "bun": 21122, "walls": 3681, "##tas": 10230, "##dio": 20617, "chickens": 21868, "confirmation": 13964, "mind": 2568, "mum": 12954, "video": 2678, "##rix": 17682, "shu": 18454, "##ask": 19895, "ask": 3198, "enrolled": 8302, "201": 16345, "crop": 10416, "##ful": 3993, "minute": 3371, "ric": 26220, "lan": 17595, "categorized": 20427, "anchored": 14453, "injuries": 6441, "drawn": 4567, "ix": 11814, "##lins": 24412, "arte": 16185, "confined": 12302, "exploit": 18077, "screens": 12117, "sip": 10668, "##elia": 13902, "ear": 4540, "csa": 27804, "manually": 21118, "##cious": 18436, "seconds": 3823, "partition": 13571, "develops": 11791, "scored": 3195, "##sko": 21590, "##romatic": 23645, "mori": 22993, "inverted": 20037, "resist": 9507, "##san": 8791, "##ctic": 13306, "kits": 18628, "ranked": 4396, "##kt": 25509, "balanced": 12042, "##dition": 20562, "possibilities": 12020, "tertiary": 13553, "##esthesia": 25344, "electronic": 4816, "invading": 17657, "counterpart": 13637, "nutrition": 14266, "mathematical": 8045, "ben": 3841, "##roids": 29514, "conflicting": 19326, "risks": 10831, "bent": 6260, "flat": 4257, "drastically": 21040, "consumed": 10202, "secondly": 16378, "##vic": 7903, "##jo": 5558, "kinds": 7957, "hat": 6045, "moving": 3048, "averaged": 11398, "jackson": 4027, "##raphic": 20721, "##mbe": 18552, "reproduction": 14627, "poll": 8554, "220": 10545, "competence": 22219, "lithium": 22157, "##odes": 19847, "completion": 6503, "retrieved": 5140, "##neo": 23585, "emerge": 12636, "cure": 9526, "##ital": 18400, "swelling": 18348, "rama": 14115, "cover": 3104, "debris": 11385, "publications": 5523, "extends": 8908, "systematically": 23087, "240": 11212, "lies": 3658, "##rave": 22401, "##ifies": 14144, "excluding": 13343, "##ulla": 22187, "difficulties": 8190, "ground": 2598, "hai": 15030, "##idium": 28742, "guided": 8546, "discrimination": 9147, "boundary": 6192, "topic": 8476, "flash": 5956, "##usions": 22016, "turned": 2357, "##tics": 14606, "responded": 5838, "accessory": 25339, "##gia": 10440, "tram": 12517, "recover": 8980, "recording": 3405, "roughly": 5560, "big": 2502, "stores": 5324, "born": 2141, "stack": 9991, "sympathetic": 13026, "uniquely": 20640, "connecting": 7176, "202": 16798, "sic": 14387, "1640": 21533, "routine": 9410, "203": 18540, "##lon": 7811, "branches": 5628, "compromise": 12014, "artemis": 19063, "##cano": 23803, "retrieval": 26384, "vulnerable": 8211, "\u2206": 1594, "164": 17943, "ether": 28855, "handling": 8304, "packaging": 14793, "avid": 18568, "dissemination": 28170, "##lle": 6216, "grid": 8370, "pipe": 8667, "##ator": 8844, "foods": 9440, "specified": 9675, "183": 18677, "energies": 19320, "##typical": 27086, "bank": 2924, "discover": 7523, "outbreak": 8293, "##kh": 10023, "264": 21611, "##idal": 16975, "##nsed": 27730, "##ell": 5349, "precipitation": 13511, "epic": 8680, "northern": 2642, "176": 18561, "nam": 15125, "##bas": 22083, "##dog": 16168, "disturbances": 24535, "##uis": 27020, "162": 17832, "adherence": 29235, "homogeneous": 24854, "matrices": 21520, "zen": 16729, "cattle": 7125, "paradox": 20506, "##lden": 28476, "parasitic": 26045, "obtaining": 11381, "situations": 8146, "vicinity": 9884, "housed": 7431, "corresponded": 27601, "plane": 4946, "lifestyle": 9580, "shoot": 5607, "resultant": 28573, "ink": 10710, "ye": 6300, "##erin": 23282, "arises": 18653, "costs": 5366, "manual": 6410, "dental": 11394, "assemblies": 17720, "##aj": 13006, "resembles": 12950, "modern": 2715, "capabilities": 9859, "aims": 8704, "##anial": 27532, "##rance": 21621, "ama": 25933, "bag": 4524, "##hini": 20535, "##key": 14839, "pipeline": 13117, "##aki": 8978, "##cial": 13247, "sha": 21146, "190": 11827, "dependency": 24394, "##mics": 22924, "filled": 3561, "##idae": 6096, "player": 2447, "extending": 8402, "##rth": 15265, "illness": 7355, "rio": 5673, "##edo": 26010, "user": 5310, "keep": 2562, "nj": 19193, "contributor": 12130, "blind": 6397, "##ius": 4173, "185": 15376, "consuming": 15077, "reconstruction": 8735, "eagle": 6755, "##yas": 16303, "constraints": 14679, "olympus": 26742, "interfaces": 19706, "knocking": 10591, "##amo": 22591, "conceptual": 17158, "##oric": 29180, "freezing": 12809, "grew": 3473, "guidance": 8606, "ich": 22564, "##ture": 11244, "trees": 3628, "scrambled": 13501, "smith": 3044, "fails": 11896, "##fra": 27843, "##dit": 23194, "mcc": 23680, "##rut": 22134, "##apa": 22068, "conceived": 10141, "reside": 13960, "retrospective": 15354, "##hala": 19531, "1987": 3055, "correctly": 11178, "##wind": 11101, "taxa": 23726, "crossed": 4625, "spores": 23763, "##tv": 9189, "returned": 2513, "hms": 7220, "foundation": 3192, "195": 17317, "originating": 14802, "##oda": 13390, "hedge": 17834, "reminiscent": 14563, "arrows": 12563, "silver": 3165, "implication": 25323, "continues": 4247, "174": 19492, "traffic": 4026, "clean": 4550, "##sons": 23345, "##comb": 18274, "introduce": 8970, "##by": 3762, "begins": 4269, "mesa": 15797, "gradual": 16612, "chambers": 8477, "fear": 3571, "thousands": 5190, "fuji": 20933, "originated": 7940, "##uka": 15750, "centre": 2803, "166": 18610, "probable": 15596, "##ih": 19190, "bout": 10094, "curvature": 25045, "cache": 17053, "##ntly": 20630, "practical": 6742, "whitney": 9809, "dishes": 10447, "bundle": 14012, "columns": 7753, "tie": 5495, "hips": 6700, "concord": 16557, "medications": 20992, "geometry": 10988, "##spar": 27694, "deposits": 10042, "fungus": 16622, "interests": 5426, "##gue": 9077, "zhao": 15634, "operating": 4082, "outward": 15436, "concurrent": 16483, "distinctive": 8200, "##ifying": 11787, "vip": 21722, "began": 2211, "rhythm": 6348, "##rice": 17599, "photon": 26383, "directions": 7826, "orchestra": 4032, "anticipated": 11436, "david": 2585, "##cede": 22119, "canine": 28735, "lose": 4558, "strict": 9384, "lit": 5507, "##ada": 8447, "meal": 7954, "burn": 6402, "elastic": 21274, "medication": 14667, "##sia": 8464, "fibre": 20962, "vice": 3580, "certainly": 5121, "apr": 19804, "meet": 3113, "bars": 6963, "mothers": 10756, "demonstration": 10467, "explaining": 9990, "##iensis": 27806, "208": 18512, "jam": 9389, "deeper": 6748, "recipients": 15991, "rejection": 13893, "##ined": 21280, "disability": 11980, "##ern": 11795, "lattice": 17779, "och": 28166, "indicators": 20390, "zhu": 15503, "korea": 4420, "heating": 10808, "plateau": 9814, "204": 19627, "proportions": 19173, "industrial": 3919, "sort": 4066, "raise": 5333, "182": 17691, "march": 2233, "accounted": 14729, "word": 2773, "helpful": 14044, "composite": 12490, "inconsistent": 20316, "chance": 3382, "##lang": 25023, "operation": 3169, "ensemble": 7241, "illustrates": 24899, "pick": 4060, "##nio": 27678, "til": 18681, "differing": 16965, "psychiatric": 13691, "begin": 4088, "bridges": 7346, "devoid": 22808, "volunteers": 7314, "invade": 18445, "chu": 14684, "tasks": 8518, "lot": 2843, "##our": 8162, "##tment": 21181, "hard": 2524, "supplied": 8127, "europe": 2885, "refers": 5218, "##rso": 25301, "discs": 15303, "aj": 19128, "##lateral": 28277, "crossing": 5153, "hold": 2907, "advance": 5083, "pumps": 15856, "##yx": 17275, "tuning": 17372, "alcoholic": 14813, "designing": 12697, "drinking": 5948, "##leg": 23115, "##lco": 22499, "##hu": 6979, "##nem": 25832, "reasoned": 24557, "##\u03c8": 29738, "1986": 3069, "169": 18582, "##ey": 3240, "oriented": 8048, "surviving": 6405, "computer": 3274, "instruments": 5693, "##star": 14117, "approximate": 15796, "helped": 3271, "waves": 5975, "horn": 7109, "##nai": 26416, "converts": 19884, "declined": 6430, "lev": 23310, "beijing": 7211, "melting": 13721, "integrating": 22380, "cotton": 6557, "downloaded": 22817, "wet": 4954, "##mba": 11201, "favors": 21191, "suffer": 9015, "nets": 16996, "zones": 10019, "carr": 12385, "cab": 9298, "soon": 2574, "ars": 29393, "camera": 4950, "##lusion": 24117, "##cting": 11873, "##ceae": 9071, "##drop": 25711, "cooper": 6201, "##sma": 26212, "tracking": 9651, "mutually": 20271, "171": 18225, "cholera": 25916, "lists": 7201, "nearby": 3518, "##ories": 18909, "##alo": 23067, "ram": 8223, "joining": 5241, "modelling": 19518, "principles": 6481, "electrons": 15057, "matches": 3503, "##dre": 16200, "llc": 11775, "sized": 7451, "preservation": 8347, "supplements": 25654, "airways": 13095, "##clusive": 23633, "inheritance": 12839, "autism": 19465, "flower": 6546, "##chin": 17231, "##ked": 8126, "heavily": 4600, "##tical": 14656, "fire": 2543, "##vable": 12423, "##inating": 19185, "aids": 8387, "hog": 27589, "isotope": 28846, "magnesium": 24983, "difficulty": 7669, "starts": 4627, "##nut": 24072, "conditioning": 14372, "introducing": 10449, "280": 13427, "enlarged": 11792, "cultivated": 13237, "accomplished": 8885, "##pate": 17585, "gaps": 16680, "##lines": 12735, "slide": 7358, "illumination": 21203, "track": 2650, "runs": 3216, "##uso": 26658, "circumstances": 6214, "##ale": 9453, "##sphere": 23874, "originate": 21754, "city": 2103, "meaning": 3574, "sampled": 18925, "##version": 27774, "##smo": 25855, "wherein": 16726, "##ow": 5004, "##posed": 19155, "exactly": 3599, "participating": 8019, "cleared": 5985, "orange": 4589, "wanted": 2359, "noting": 9073, "hundred": 3634, "recommendations": 11433, "stopped": 3030, "##idia": 29342, "held": 2218, "##rch": 11140, "detector": 19034, "assuming": 10262, "nsa": 23971, "##ptive": 24971, "resemble": 13014, "##fying": 14116, "sphere": 10336, "align": 25705, "##pel": 11880, "query": 23032, "pia": 24624, "##lone": 27165, "##ado": 9365, "migrated": 13447, "##ear": 14644, "##lter": 21928, "\u03c7": 1177, "##cology": 19824, "france": 2605, "222": 19015, "starved": 26042, "meat": 6240, "ash": 6683, "earliest": 5700, "optic": 22816, "refined": 15514, "school": 2082, "##ured": 12165, "commitment": 8426, "poorer": 27196, "##lei": 23057, "orders": 4449, "leaving": 2975, "shut": 3844, "restoring": 16487, "bipolar": 29398, "inorganic": 28256, "260": 13539, "wider": 7289, "ineffective": 20694, "bright": 4408, "##icum": 22167, "339": 28977, "reaches": 6561, "undertaken": 10607, "nerves": 10627, "##uer": 13094, "##wat": 24281, "stalled": 20659, "##iam": 25107, "crops": 8765, "combat": 4337, "foster": 6469, "flip": 11238, "##rini": 22612, "enters": 8039, "defence": 4721, "store": 3573, "versions": 4617, "behave": 16582, "asa": 17306, "scope": 9531, "carp": 29267, "routinely": 19974, "custom": 7661, "fragmented": 26872, "vale": 10380, "engaged": 5117, "##iana": 11410, "manifested": 24906, "asian": 4004, "echo": 9052, "collapse": 7859, "constituent": 13794, "##cycle": 23490, "oro": 20298, "fits": 16142, "outlined": 14801, "##yan": 7054, "##points": 26521, "engage": 8526, "rob": 6487, "##eria": 11610, "ancestral": 14947, "##hon": 8747, "defenses": 13345, "generations": 8213, "industry": 3068, "carries": 7883, "relate": 14396, "fifth": 3587, "economic": 3171, "generalized": 18960, "viewed": 7021, "##dent": 16454, "##weight": 11179, "173": 19410, "brought": 2716, "opportunities": 6695, "binary": 12441, "redistribution": 25707, "govern": 21208, "221": 19594, "permanent": 4568, "mutual": 8203, "criterion": 19229, "needle": 12201, "\u2248": 1606, "##\u03b6": 29724, "projections": 21796, "papers": 4981, "##hat": 12707, "tv": 2694, "adjustment": 19037, "rub": 14548, "filtering": 22910, "emotional": 6832, "v6": 25275, "threatening": 8701, "searches": 17193, "joints": 17651, "stream": 5460, "maze": 15079, "dish": 9841, "references": 7604, "qc": 25196, "passed": 2979, "entering": 5738, "1985": 3106, "cage": 7980, "spear": 12341, "##sop": 28793, "hey": 4931, "##sch": 11624, "mesh": 20437, "indications": 24936, "confluence": 13693, "achieving": 10910, "##erus": 21608, "regulations": 7040, "##ink": 19839, "##tained": 28055, "##hine": 14014, "sad": 6517, "##eck": 11012, "vision": 4432, "got": 2288, "capacities": 21157, "hypothetical": 25613, "assist": 6509, "uncertain": 9662, "hill": 2940, "africa": 3088, "bed": 2793, "trio": 7146, "responds": 16412, "##ude": 12672, "##ality": 23732, "bring": 3288, "atop": 10234, "ancient": 3418, "##aur": 21159, "interpret": 17841, "dai": 18765, "##keeping": 18321, "##alle": 24164, "##ee": 4402, "rq": 28134, "tone": 4309, "raising": 6274, "traditionally": 6964, "resembling": 15525, "weighted": 18215, "totally": 6135, "##ably": 8231, "##lay": 8485, "##ao": 7113, "##cz": 27966, "derive": 18547, "releases": 7085, "codes": 9537, "mounting": 15986, "combine": 11506, "suspected": 6878, "cid": 28744, "##lier": 14355, "contradictory": 27894, "scans": 27404, "##mium": 27759, "dimensions": 9646, "##gill": 19791, "197": 19975, "##ilo": 22360, "##izations": 22318, "thoroughly": 12246, "##aria": 10980, "335": 24426, "favored": 12287, "##eca": 19281, "martin": 3235, "spent": 2985, "symmetry": 14991, "covering": 5266, "operate": 5452, "north": 2167, "answer": 3437, "looking": 2559, "programming": 4730, "pierce": 9267, "standardized": 16367, "reacted": 14831, "230": 11816, "switches": 15924, "empirical": 17537, "##uid": 21272, "##gu": 12193, "##ians": 7066, "##nst": 23808, "bel": 19337, "inferior": 14092, "##max": 17848, "harbour": 7440, "##ama": 8067, "cows": 17188, "tonic": 28157, "beck": 10272, "reproduce": 21376, "strengthen": 12919, "taste": 5510, "lacked": 10858, "survey": 5002, "mob": 11240, "attract": 9958, "son": 2365, "##nine": 19105, "insult": 15301, "##enes": 28553, "motivation": 14354, "##uls": 28426, "evade": 26399, "jiang": 20613, "mach": 24532, "worm": 15485, "##nical": 20913, "vu": 24728, "##ivated": 21967, "modular": 19160, "flanked": 15874, "vulnerability": 18130, "look": 2298, "hint": 9374, "preserve": 7969, "counters": 24094, "hemisphere": 14130, "mole": 16709, "186": 19609, "language": 2653, "cognition": 26497, "##chia": 20881, "facility": 4322, "holds": 4324, "##formed": 29021, "inappropriate": 15884, "##tel": 9834, "sectional": 27197, "disturbed": 12491, "entered": 3133, "##oke": 11045, "movie": 3185, "stu": 24646, "tips": 10247, "rhythms": 17900, "guo": 22720, "##tica": 22723, "##iciencies": 28227, "prepare": 7374, "188": 19121, "cooperation": 6792, "instances": 12107, "##pina": 26787, "interactive": 9123, "attracted": 6296, "gus": 12670, "shake": 6073, "##vb": 26493, "came": 2234, "revised": 8001, "##hol": 14854, "exciting": 10990, "horizontal": 9876, "epidemic": 16311, "searching": 6575, "accommodate": 8752, "expenditure": 20700, "##sity": 17759, "implementation": 7375, "peaked": 6601, "boundaries": 7372, "losses": 6409, "addiction": 13449, "##osition": 19234, "rounds": 6241, "##anal": 27953, "##onate": 21149, "206": 18744, "##nsis": 11745, "interested": 4699, "seizure": 18634, "##ord": 8551, "blank": 8744, "cia": 9915, "##sos": 17063, "spines": 20352, "child": 2775, "##aba": 19736, "##nan": 7229, "##ias": 7951, "chang": 11132, "##pal": 12952, "waters": 5380, "##bel": 8671, "asia": 4021, "incorporating": 13543, "los": 3050, "daughter": 2684, "750": 9683, "structured": 14336, "pointing": 7302, "delays": 14350, "hmm": 17012, "nan": 16660, "##ych": 17994, "magnet": 16853, "herbal": 27849, "catalog": 12105, "desirable": 16166, "floral": 18686, "hereditary": 14800, "cigarette": 9907, "##bat": 14479, "anchorage": 21086, "creates": 9005, "traces": 10279, "fuse": 19976, "##iec": 23783, "compensation": 9430, "178": 19289, "centered": 8857, "inadequate": 14710, "avoiding": 9992, "replacing": 6419, "looked": 2246, "##ify": 8757, "kat": 10645, "objects": 5200, "valve": 10764, "##gne": 10177, "slope": 9663, "##tron": 15312, "pulses": 23894, "brass": 8782, "##dam": 17130, "##yre": 16363, "argue": 7475, "beam": 7504, "clasp": 23465, "eat": 4521, "##ward": 7652, "weekly": 4882, "sharing": 6631, "tens": 15295, "stella": 11894, "##dorf": 11592, "##bilities": 14680, "huge": 4121, "return": 2709, "replace": 5672, "orbit": 8753, "diaz": 12526, "rhythmic": 14797, "sid": 15765, "rabbits": 20403, "225": 14993, "violet": 8766, "entropy": 23077, "dispersed": 15484, "##field": 3790, "favour": 7927, "cup": 2452, "preceding": 11003, "foam": 17952, "switched": 7237, "permit": 9146, "##ogo": 22844, "ark": 15745, "##umb": 25438, "pulp": 16016, "game": 2208, "##vita": 28403, "##ley": 3051, "couple": 3232, "ammonia": 25874, "187": 19446, "##tani": 17681, "concepts": 8474, "##ppa": 13944, "stalk": 23899, "varieties": 9903, "encouraging": 11434, "seasonal": 12348, "disadvantage": 20502, "encompassing": 19129, "##sam": 21559, "execution": 7781, "pba": 21563, "bart": 12075, "##race": 22903, "mao": 15158, "fracture": 19583, "##eve": 18697, "traumatic": 19686, "wounds": 8710, "encountered": 8567, "##tonic": 25009, "focuses": 7679, "lds": 17627, "sit": 4133, "##ored": 19574, "equations": 11380, "entities": 11422, "adaptations": 17241, "shuttle": 10382, "japanese": 2887, "179": 20311, "repeatedly": 8385, "mgm": 15418, "##oat": 16503, "possessing": 18840, "reporters": 12060, "brady": 10184, "insults": 23862, "utilizes": 21852, "reflex": 22259, "oyster": 21480, "wasting": 18313, "##izer": 17629, "urgent": 13661, "cue": 16091, "inspection": 10569, "vii": 8890, "guinea": 7102, "canada": 2710, "fuel": 4762, "surrounded": 5129, "bot": 28516, "swiss": 5364, "##lz": 23858, "pie": 11345, "ate": 8823, "docked": 25727, "pilot": 4405, "irregular": 12052, "odds": 10238, "vic": 10967, "20s": 27074, "serving": 3529, "##0s": 16223, "parents": 3008, "##iable": 19210, "##worm": 22769, "edited": 5493, "implied": 13339, "900": 7706, "##ryn": 18143, "row": 5216, "scientists": 6529, "boxes": 8378, "freely": 10350, "heated": 9685, "passages": 13768, "##most": 11800, "seminal": 20603, "##raction": 25533, "tends": 12102, "stems": 12402, "avoidance": 24685, "mask": 7308, "tracts": 22069, "acceleration": 16264, "penetrate": 19136, "##gement": 20511, "ari": 10488, "facing": 5307, "nak": 17823, "lives": 3268, "tooth": 11868, "##vale": 17479, "synonymous": 22594, "##ji": 4478, "constantly": 7887, "detachment": 11009, "author": 3166, "##vill": 26548, "evolve": 19852, "clip": 12528, "##elt": 20042, "ensuring": 12725, "reinforce": 19444, "selecting": 17739, "##enter": 29110, "windows": 3645, "\u00df": 1096, "absorbed": 9063, "mood": 6888, "##ising": 9355, "shortened": 12641, "acted": 6051, "dying": 5996, "191": 19871, "poses": 22382, "##sation": 26652, "draft": 4433, "moved": 2333, "##tically": 25084, "saw": 2387, "assignment": 8775, "mango": 24792, "damages": 12394, "##ume": 17897, "attach": 22476, "##ela": 10581, "##oss": 15094, "177": 18118, "advent": 13896, "sandwich": 11642, "##itt": 12474, "##uce": 18796, "twitch": 19435, "211": 19235, "mats": 22281, "discarded": 15105, "##ken": 7520, "##oka": 12352, "bundles": 26825, "dj": 6520, "##iography": 26535, "doubling": 19383, "popular": 2759, "california": 2662, "lid": 11876, "society": 2554, "possessed": 8679, "##ythe": 26688, "##coll": 26895, "ancestor": 13032, "ambient": 17093, "caution": 14046, "nonsense": 14652, "hercules": 15067, "##hor": 16368, "birds": 5055, "virtual": 7484, "faces": 5344, "184": 19681, "##vel": 15985, "night": 2305, "##iza": 21335, "verification": 22616, "##zen": 10431, "##stream": 21422, "expose": 14451, "quantum": 8559, "psychological": 8317, "mercury": 8714, "dominated": 6817, "##cton": 28312, "careful": 6176, "##xed": 19068, "foe": 22277, "flight": 3462, "##raphy": 26228, "east": 2264, "iec": 24940, "denoted": 19537, "laps": 10876, "rough": 5931, "condensed": 25011, "medicines": 20233, "freeze": 13184, "adoptive": 24787, "drastic": 23956, "radius": 12177, "meaningful": 15902, "closest": 7541, "eliminating": 15349, "emi": 12495, "##athic": 20972, "click": 11562, "hearing": 4994, "ensures": 21312, "ibm": 9980, "##num": 19172, "episodes": 4178, "##yi": 10139, "bey": 20289, "drivers": 6853, "southern": 2670, "employ": 12666, "gan": 25957, "exemplified": 28593, "##istan": 23137, "buds": 26734, "expanding": 9186, "yan": 13619, "shifting": 9564, "entries": 10445, "barr": 19820, "fin": 10346, "barley": 21569, "##anne": 20147, "theoretically": 22634, "presumed": 14609, "coin": 9226, "today": 2651, "resides": 11665, "repaired": 13671, "contrasting": 22133, "pace": 6393, "stirred": 13551, "##fly": 14151, "tempting": 23421, "kiss": 3610, "perfect": 3819, "##tch": 10649, "grant": 3946, "maximize": 25845, "dairy": 11825, "cores": 25562, "##gil": 20142, "218": 20741, "pei": 26850, "institutes": 12769, "sheets": 8697, "exhaust": 15095, "opens": 7480, "incorporate": 13265, "##back": 5963, "conservative": 4603, "hazard": 15559, "##media": 16969, "film": 2143, "demands": 7670, "persisted": 19035, "omega": 14827, "##ches": 8376, "viva": 20022, "##encies": 15266, "uh": 7910, "tnt": 24048, "uniformly": 27423, "knee": 6181, "wee": 16776, "sediment": 19671, "dev": 16475, "intellectual": 7789, "company": 2194, "jp": 16545, "exhaustion": 15575, "##stand": 21515, "##chal": 18598, "successive": 11165, "mosaic": 16061, "##qi": 14702, "sides": 3903, "189": 20500, "kw": 6448, "naked": 6248, "unidentified": 20293, "tried": 2699, "symmetric": 19490, "jose": 4560, "plug": 13354, "emphasize": 17902, "rai": 15547, "213": 19883, "authorized": 9362, "inference": 28937, "switzerland": 5288, "motions": 15323, "concentrate": 10152, "translate": 17637, "fide": 26000, "eta": 27859, "##arat": 25879, "tis": 22320, "sweet": 4086, "4000": 20143, "nova": 6846, "lad": 14804, "ski": 8301, "masses": 11678, "dots": 14981, "flowers": 4870, "addressing": 12786, "trapping": 22977, "##lite": 22779, "ndp": 21915, "versatile": 22979, "closing": 5494, "fidelity": 22625, "numerical": 15973, "##sari": 22740, "##ioned": 19798, "reliability": 15258, "arranged": 5412, "##die": 10265, "paw": 22195, "##mum": 27147, "vacuum": 11641, "wounding": 27285, "sax": 19656, "rex": 10151, "innovative": 9525, "intended": 3832, "##ned": 7228, "smart": 6047, "compelling": 17075, "##bers": 17198, "##ops": 11923, "noticeable": 17725, "nickel": 15519, "##bon": 11735, "surf": 14175, "developments": 8973, "afforded": 22891, "italy": 3304, "##ick": 6799, "survivors": 8643, "##truct": 18300, "dormant": 22170, "sudden": 5573, "debate": 5981, "emphasized": 13155, "proceed": 10838, "thirty": 4228, "conducting": 9283, "neat": 15708, "johnson": 3779, "kingdom": 2983, "pose": 13382, "reportedly": 7283, "danger": 5473, "##mist": 23738, "retains": 14567, "dedicated": 4056, "labor": 4450, "##tti": 6916, "considerations": 16852, "portions": 8810, "opened": 2441, "undergone": 17215, "##iii": 28954, "backgrounds": 15406, "charges": 5571, "##wley": 20609, "transmit": 19818, "board": 2604, "deterioration": 26118, "margin": 7785, "##gration": 29397, "clues": 15774, "##rkin": 26891, "productivity": 15836, "625": 22810, "minus": 15718, "wise": 7968, "scales": 9539, "##rium": 18802, "filters": 17736, "ally": 9698, "occasionally": 5681, "deal": 3066, "gmbh": 18289, "quick": 4248, "humidity": 18213, "pieces": 4109, "assign": 23911, "promo": 19430, "dimension": 9812, "relay": 8846, "bench": 6847, "publicly": 7271, "accompanying": 10860, "survived": 5175, "emphasis": 7902, "failing": 7989, "moment": 2617, "papa": 13008, "encounter": 8087, "advancement": 12607, "swimming": 5742, "diva": 25992, "packed": 8966, "##osh": 17369, "madison": 7063, "twelve": 4376, "progressed": 12506, "kyoto": 15008, "intricate": 17796, "proceeds": 10951, "gift": 5592, "216": 20294, "simulate": 26633, "##are": 12069, "215": 17405, "calf": 19134, "##gis": 17701, "shaking": 5513, "##osed": 24768, "##minated": 26972, "duo": 6829, "##bling": 9709, "dei": 14866, "fae": 17282, "elf": 17163, "provoke": 27895, "234": 22018, "primitive": 10968, "zu": 16950, "##oes": 22504, "classify": 26268, "nick": 4172, "##stituting": 21532, "##icides": 22698, "##ental": 21050, "slice": 14704, "transit": 6671, "garcia": 7439, "endemic": 7320, "chord": 13924, "shan": 17137, "distinguishing": 20852, "consortium": 12360, "224": 19711, "aiming": 13659, "cds": 14340, "aqua": 28319, "icc": 16461, "presently": 12825, "shortly": 3859, "rescues": 26001, "##ese": 6810, "##bilis": 27965, "##tip": 25101, "html": 16129, "suggestion": 10293, "lava": 13697, "projection": 13996, "heads": 4641, "##vision": 17084, "graded": 21976, "threat": 5081, "distress": 12893, "discharge": 11889, "session": 5219, "automatic": 6882, "wilcox": 23926, "##dication": 25027, "perceived": 8690, "communities": 4279, "packing": 14743, "algae": 18670, "##ako": 20411, "@": 1030, "##fies": 14213, "lining": 14834, "borne": 15356, "jin": 9743, "till": 6229, "digit": 15340, "disappeared": 5419, "barely": 4510, "poles": 10567, "silk": 6953, "\u03c1": 1171, "1980": 3150, "coordinating": 19795, "terminated": 12527, "jia": 25871, "superficial": 23105, "jar": 15723, "##ues": 15808, "vertical": 7471, "##anta": 26802, "##rize": 25709, "periodic": 15861, "constrained": 27570, "##imum": 28591, "##ivo": 20984, "pulled": 2766, "298": 27240, "india": 2634, "cao": 12966, "##kan": 9126, "juvenile": 11799, "mouth": 2677, "tia": 27339, "##chai": 24925, "genera": 11416, "\u2033": 1532, "209": 19348, "##ctric": 22601, "tang": 9745, "##asurable": 28329, "nz": 20008, "##atter": 20097, "ascribed": 28025, "entrance": 4211, "alongside": 4077, "suited": 10897, "grape": 14722, "sho": 26822, "firm": 3813, "\u03b7": 1161, "grand": 2882, "217": 20335, "##nched": 19282, "barrel": 8460, "setup": 16437, "loads": 15665, "expensive": 6450, "governing": 8677, "defines": 11859, "shrink": 22802, "feasibility": 24010, "corporation": 3840, "cited": 6563, "232": 20666, "ultimate": 7209, "century": 2301, "don": 2123, "##via": 9035, "\u03c6": 1176, "ou": 15068, "##tter": 12079, "ultraviolet": 26299, "orthogonal": 28721, "remote": 6556, "prey": 8336, "sophisticated": 12138, "##cht": 10143, "##ched": 7690, "hope": 3246, "whom": 3183, "timely": 23259, "207": 19843, "##ez": 9351, "##zin": 17168, "256": 17273, "multitude": 20889, "aluminum": 13061, "##ndo": 15482, "configurations": 22354, "1983": 3172, "regards": 12362, "1981": 3261, "divers": 18612, "##lace": 19217, "relieve": 15804, "calculating": 20177, "giant": 5016, "abuse": 6905, "scenarios": 16820, "person": 2711, "flank": 12205, "afterwards": 5728, "domestic": 4968, "##hem": 29122, "\u03b8": 1162, "1500": 10347, "market": 3006, "##hit": 16584, "520": 19611, "rosa": 9508, "formulated": 19788, "1984": 3118, "leader": 3003, "##hell": 18223, "tick": 16356, "indices": 29299, "bones": 5944, "zipper": 22082, "##sz": 17112, "\u2026": 1529, "compensated": 29258, "land": 2455, "necessity": 13185, "caucasian": 23368, "##omp": 25377, "compliance": 12646, "quo": 22035, "sai": 18952, "sand": 5472, "adjusting": 19158, "lange": 21395, "##ake": 13808, "cones": 23825, "254": 22234, "netherlands": 4549, "electric": 3751, "convincing": 13359, "disturbance": 16915, "##uded": 13936, "donkey": 20325, "honey": 6861, "##bble": 11362, "buried": 3950, "194": 19955, "latest": 6745, "##eon": 10242, "##tracted": 24301, "##yu": 10513, "hampered": 22532, "hidden": 5023, "rendering": 14259, "290": 17222, "preferences": 18394, "trajectory": 22793, "convenient": 14057, "ruled": 5451, "##ructured": 26134, "##gol": 24141, "shen": 21882, "##jm": 24703, "330": 14210, "monkeys": 17059, "##cous": 27199, "hall": 2534, "exposing": 14944, "helm": 16254, "topological": 24309, "enormous": 8216, "##hei": 26036, "offset": 16396, "##sten": 16173, "jones": 3557, "preserving": 15224, "mom": 3566, "pine": 7222, "synchronized": 25549, "cats": 8870, "##eme": 21382, "trapped": 7567, "offered": 3253, "ethnic": 5636, "existed": 5839, "1200": 14840, "##ump": 24237, "michael": 2745, "##lles": 20434, "adolescents": 25947, "##ssen": 14416, "bulb": 20581, "pockets": 10306, "229": 22777, "bee": 10506, "broken": 3714, "##eng": 13159, "brazil": 4380, "interior": 4592, "zheng": 20985, "##wg": 27767, "supposed": 4011, "college": 2267, "slug": 23667, "lau": 21360, "vial": 28475, "340": 16029, "275": 17528, "weakness": 11251, "infused": 29592, "merely": 6414, "relating": 8800, "deformation": 29130, "divisions": 5908, "##ching": 8450, "vamp": 20279, "nmi": 22484, "##uin": 20023, "tunic": 23002, "wake": 5256, "las": 5869, "##zar": 9057, "##print": 16550, "storm": 4040, "liv": 22135, "salts": 23480, "researches": 27338, "straightforward": 19647, "333": 21211, "##illo": 10486, "##gues": 22967, "mets": 15253, "agree": 5993, "##inates": 28184, "impossible": 5263, "##bal": 10264, "##plicity": 27293, "##ville": 3077, "##pins": 27915, "specimen": 11375, "validity": 16406, "lai": 21110, "rum": 19379, "auxiliary": 9830, "nme": 23770, "ingredients": 12760, "##kit": 23615, "registered": 5068, "##iki": 17471, "##glio": 29480, "ono": 21058, "compositions": 9265, "manipulate": 17708, "spherical": 18970, "zeta": 23870, "##uram": 27618, "rules": 3513, "apple": 6207, "excited": 7568, "walker": 5232, "skeleton": 13526, "##iens": 24836, "mount": 4057, "thorough": 16030, "gui": 26458, "spaces": 7258, "##rina": 11796, "education": 2495, "##eros": 27360, "concurrently": 15442, "halt": 9190, "##test": 22199, "diagram": 16403, "detached": 12230, "##xon": 22500, "deeply": 6171, "slap": 14308, "supportive": 16408, "probing": 28664, "explanations": 17959, "geometric": 14965, "219": 20636, "supervised": 13588, "tropical": 5133, "crest": 11146, "##ska": 8337, "blinded": 20641, "sided": 11536, "##ocation": 23909, "##esian": 25253, "progresses": 22901, "198": 20003, "australia": 2660, "##amina": 27651, "pali": 28619, "monkey": 10608, "##wd": 21724, "##yana": 16811, "##icide": 21752, "mon": 12256, "appetite": 18923, "imported": 10964, "##ease": 19500, "##ision": 19969, "tape": 6823, "\u03b6": 1160, "##zz": 13213, "eleven": 5408, "##oga": 18170, "hua": 23064, "simplified": 11038, "operative": 12160, "##upt": 29441, "corp": 13058, "scanned": 11728, "wood": 3536, "##tou": 24826, "ultrasound": 27312, "##ype": 18863, "cole": 5624, "##500": 29345, "acceptable": 11701, "fairly": 7199, "preceded": 11677, "##isi": 17417, "creation": 4325, "##ils": 12146, "##body": 23684, "lana": 16554, "##olf": 28027, "##rgh": 27172, "##lth": 24658, "mining": 5471, "touch": 3543, "##dot": 27364, "##utation": 26117, "226": 21035, "coming": 2746, "##dict": 29201, "cooled": 12981, "infrared": 14611, "bending": 14457, "chan": 9212, "going": 2183, "##iel": 9257, "berg": 15214, "perspectives": 15251, "resolving": 29304, "accelerating": 29494, "##land": 3122, "evolving": 20607, "projects": 3934, "automatically": 8073, "##isa": 14268, "##tell": 23567, "cooling": 11520, "sms": 22434, "##bis": 18477, "german": 2446, "corpus": 13931, "imposed": 9770, "##gle": 9354, "##gar": 6843, "orr": 26914, "##dina": 18979, "wax": 13844, "tuned": 15757, "ball": 3608, "276": 25113, "facial": 13268, "bear": 4562, "establishes": 21009, "##dos": 12269, "\u03c8": 1178, "cheng": 15898, "aroma": 23958, "decomposition": 22511, "ranking": 5464, "xiao": 19523, "sparse": 20288, "243": 22884, "wil": 19863, "##connected": 24230, "##tek": 23125, "auditory": 28042, "hardly": 6684, "##thermal": 23367, "##pers": 7347, "slowing": 18068, "##yama": 11613, "removes": 20362, "miller": 4679, "receiver": 8393, "apex": 13450, "locate": 12453, "decisions": 6567, "##date": 13701, "##hila": 26415, "enveloped": 25407, "bulky": 27446, "depended": 17292, "invertebrates": 25700, "vulgar": 29364, "poisoning": 16149, "bit": 2978, "##ford": 3877, "obstruction": 27208, "devi": 14386, "nora": 12306, "##space": 23058, "discoveries": 15636, "##lav": 14973, "##graphs": 27341, "##jn": 22895, "maxim": 20446, "solve": 9611, "reproduced": 22296, "##riz": 21885, "performs": 10438, "wta": 21925, "descending": 15127, "observing": 14158, "overcoming": 27363, "orphan": 18211, "elegant": 11552, "browser": 16602, "cope": 11997, "kindly": 19045, "comparatively": 20172, "hunting": 5933, "##rant": 17884, "stil": 25931, "consistency": 18700, "beige": 28799, "##oge": 23884, "carbonate": 26427, "chips": 11772, "##aine": 18175, "##pia": 19312, "exported": 15612, "dropped": 3333, "exceeding": 17003, "suv": 15620, "permits": 14245, "collision": 12365, "records": 2636, "##ffe": 16020, "##loading": 18570, "##bola": 24290, "hatch": 11300, "drafted": 7462, "##uous": 8918, "ewing": 24023, "attacks": 4491, "##erty": 15010, "##ets": 8454, "mirror": 5259, "experiences": 6322, "governed": 9950, "funding": 4804, "mort": 22294, "266": 25162, "bottle": 5835, "deprived": 17676, "grains": 17588, "##train": 23654, "river": 2314, "experimentation": 21470, "disk": 9785, "##\u025b": 29275, "scratch": 11969, "##olved": 16116, "##mara": 28225, "##tral": 21493, "seemingly": 9428, "rendered": 10155, "impacted": 19209, "waste": 5949, "admission": 9634, "##nse": 12325, "tablets": 17596, "adjust": 14171, "##mata": 21022, "collecting": 9334, "curated": 17940, "vibration": 17880, "##rill": 24714, "appropriately": 23263, "leave": 2681, "##ulsion": 23316, "monte": 10125, "stretching": 10917, "##urable": 23086, "weighed": 12781, "adds": 9909, "nw": 22064, "eating": 5983, "turns": 4332, "evans": 6473, "##oration": 21223, "##otti": 21325, "##cen": 27524, "restricting": 26996, "numb": 15903, "colour": 6120, "nhs": 17237, "##tling": 15073, "gao": 17377, "cum": 13988, "##ggs": 21314, "alfa": 22989, "residing": 7154, "##rail": 15118, "colored": 6910, "brings": 7545, "coup": 8648, "exceptions": 11790, "annual": 3296, "scarce": 18782, "##rz": 15378, "##cana": 28621, "relates": 14623, "vegetables": 11546, "relatives": 9064, "statement": 4861, "wondered": 4999, "occupy": 11494, "nomenclature": 23718, "toy": 9121, "nanjing": 21455, "you": 2017, "chicago": 3190, "##\u00df": 19310, "buffalo": 6901, "tunnel": 5234, "hook": 8103, "fragile": 13072, "coded": 22402, "smallest": 10479, "representations": 15066, "aerial": 9682, "rising": 4803, "unwanted": 18162, "ease": 7496, "##work": 6198, "exceeded": 14872, "rang": 8369, "team": 2136, "##gree": 28637, "##eres": 18702, "##bution": 29446, "entity": 9178, "rigorous": 20001, "exceed": 13467, "biochemistry": 22419, "staging": 15308, "mug": 14757, "committed": 5462, "##hey": 14844, "oval": 9242, "circle": 4418, "vera": 12297, "310": 17196, "song": 2299, "ley": 25866, "stand": 3233, "##ban": 8193, "##cross": 16458, "depressed": 14777, "profoundly": 28089, "236": 23593, "tin": 9543, "breaking": 4911, "transferring": 14391, "fulfill": 13883, "remainder": 6893, "##rata": 14660, "angles": 12113, "##ingen": 15542, "martinez": 10337, "241": 22343, "arena": 5196, "packaged": 21972, "sexes": 21024, "urgently": 25478, "judged": 13224, "##had": 16102, "cutting": 6276, "phi": 13569, "draining": 19689, "generic": 12391, "triad": 25355, "##idon": 28201, "rei": 24964, "##its": 12762, "##band": 12733, "265": 20549, "##hop": 18471, "recall": 9131, "480": 17295, "agricultural": 4910, "##ats": 11149, "ding": 22033, "directing": 9855, "##gui": 25698, "##ply": 22086, "england": 2563, "vest": 17447, "specify": 20648, "##ij": 28418, "##vet": 19510, "##folia": 21710, "360": 9475, "delivering": 12771, "divide": 11443, "##pis": 18136, "##logies": 21615, "##wer": 13777, "costa": 6849, "##onia": 12488, "##sus": 13203, "##bee": 11306, "##ery": 7301, "volatile": 20606, "frank": 3581, "labels": 10873, "680": 23944, "##sson": 7092, "citrus": 20418, "dissolution": 12275, "comet": 15699, "##phile": 24862, "peculiar": 14099, "union": 2586, "270": 13756, "##backs": 12221, "headache": 14978, "sick": 5305, "avoided": 9511, "america": 2637, "merged": 5314, "dwarf": 11229, "suffered": 4265, "manufacturing": 5814, "bouts": 23666, "pressures": 15399, "tremendous": 14388, "heightened": 21106, "##eding": 17819, "cereal": 20943, "exaggerated": 16903, "##chen": 8661, "301": 19123, "hierarchy": 12571, "gains": 12154, "shapes": 10466, "##inger": 9912, "char": 25869, "##zle": 29247, "shoots": 11758, "contrasts": 23347, "masked": 16520, "manga": 8952, "moss": 10636, "wilson": 4267, "tempo": 13657, "bill": 3021, "shortest": 20047, "rita": 11620, "proficient": 27029, "retaining": 12823, "neil": 6606, "eventual": 9523, "regularly": 5570, "demographic": 15982, "progressing": 27673, "##ient": 11638, "nowadays": 13367, "moe": 22078, "realized": 3651, "win": 2663, "feb": 13114, "principally": 16552, "hands": 2398, "suite": 7621, "intermittent": 23852, "slowed": 9784, "yi": 12316, "agrees": 10217, "identities": 15702, "sri": 5185, "mana": 24951, "radioactive": 17669, "bend": 8815, "missed": 4771, "disappearance": 13406, "ideally": 28946, "##dan": 7847, "persons": 5381, "##lini": 22153, "arbor": 19679, "550": 13274, "yin": 18208, "##une": 9816, "lister": 27177, "amor": 16095, "##naire": 20589, "fertile": 14946, "pulsed": 24107, "metric": 12046, "conception": 13120, "##nese": 14183, "choose": 5454, "sts": 8541, "##pur": 5311, "##raine": 26456, "##hum": 28600, "650": 13757, "##oides": 25064, "ventilation": 19536, "paths": 10425, "##lta": 24458, "##ante": 12956, "244": 24194, "boiled": 17020, "liter": 23675, "242": 22431, "easier": 6082, "steep": 9561, "##tour": 21163, "##rey": 15202, "record": 2501, "axial": 26819, "disturb": 22995, "##ego": 20265, "appearing": 6037, "##nte": 10111, "227": 21489, "collect": 8145, "235": 17825, "rhino": 24091, "ryan": 4575, "consolidation": 17439, "darmstadt": 28381, "roth": 12211, "sliding": 8058, "forty": 5659, "manage": 6133, "abd": 19935, "##rite": 17625, "abstract": 10061, "scattered": 7932, "chin": 5413, "##uca": 18100, "reel": 15934, "##rca": 18992, "mention": 5254, "mechanically": 27846, "##rand": 13033, "underway": 14128, "relief": 4335, "##dock": 14647, "##icated": 17872, "combines": 13585, "operates": 5748, "##pore": 26691, "##list": 9863, "##nosis": 27109, "forest": 3224, "lamb": 12559, "##graph": 14413, "distinction": 7835, "##ctions": 22014, "hay": 10974, "##zal": 16739, "bell": 4330, "repository": 22409, "##lem": 16930, "375": 18034, "attributes": 12332, "prominently": 14500, "decorated": 7429, "##wl": 13668, "repetition": 23318, "fischer": 13042, "##icate": 24695, "gil": 13097, "capturing": 11847, "bats": 12236, "bonded": 20886, "blu": 14154, "##fed": 25031, "pixel": 22138, "hong": 4291, "incident": 5043, "avenues": 20859, "##face": 12172, "scanner": 26221, "tangle": 24453, "moves": 5829, "declared": 4161, "warm": 4010, "cohen": 9946, "logical": 11177, "##ien": 9013, "##cona": 24366, "ready": 3201, "weakened": 11855, "737": 22061, "relax": 9483, "straight": 3442, "##rica": 14735, "capped": 13880, "##kawa": 13069, "rodriguez": 9172, "##oza": 25036, "##xes": 20156, "crossover": 16335, "rye": 20926, "dept": 29466, "##thor": 27844, "filling": 8110, "##mill": 19912, "insignificant": 27018, "kam": 27829, "morning": 2851, "restrictive": 25986, "##ann": 11639, "couples": 6062, "##see": 19763, "inhaled": 15938, "##iform": 22631, "beth": 7014, "marko": 28003, "grasp": 10616, "oils": 20631, "##fest": 14081, "stall": 13498, "chest": 3108, "770": 29065, "clara": 10254, "##nberg": 11144, "##iculate": 24153, "epstein": 26646, "silicon": 13773, "flap": 20916, "wallis": 24029, "encyclopedia": 12204, "php": 25718, "huntington": 16364, "##osphere": 25444, "grey": 4462, "rani": 21617, "332": 29327, "cryptic": 26483, "problematic": 18636, "grass": 5568, "##rdan": 26992, "reacts": 27325, "assessments": 20794, "##tie": 9515, "learned": 4342, "228": 22238, "##bing": 10472, "nearest": 7205, "gently": 5251, "reserve": 3914, "nausea": 19029, "sweden": 4701, "##rva": 19146, "wc": 15868, "onion": 20949, "instrumental": 6150, "taiwan": 6629, "proposal": 6378, "##ock": 7432, "potato": 14557, "##ced": 11788, "designs": 5617, "ascending": 22316, "incompatible": 25876, "##rier": 16252, "bark": 11286, "gig": 15453, "##\u00f8": 16415, "253": 23254, "passing": 4458, "alternatives": 15955, "subdivided": 15369, "feng": 19004, "denmark": 5842, "footprint": 24319, "308": 24232, "##zon": 11597, "cree": 27831, "##hus": 9825, "prescribed": 16250, "##vil": 14762, "cite": 21893, "substitute": 7681, "bari": 22466, "spotted": 7282, "chick": 14556, "1982": 3196, "##mani": 20799, "##rai": 14995, "convergence": 19143, "^": 1034, "adequately": 23613, "myriad": 25028, "ava": 10927, "law": 2375, "averaging": 14985, "shaping": 20300, "lowers": 24950, "competes": 14190, "singh": 5960, "##xious": 25171, "antenna": 13438, "##group": 17058, "goals": 3289, "instruction": 7899, "405": 23988, "payload": 18093, "##itz": 8838, "breakthrough": 12687, "names": 3415, "suicide": 5920, "argued": 5275, "shin": 12277, "grades": 7022, "##aging": 16594, "situated": 4350, "collaboration": 5792, "mildly": 19499, "ron": 6902, "alf": 24493, "tracks": 3162, "paste": 19351, "##iness": 9961, "strengths": 20828, "contaminated": 19450, "dickinson": 17590, "graphs": 19287, "gill": 12267, "arose": 10375, "concerned": 4986, "tracing": 16907, "##sky": 5874, "gaa": 19930, "bradford": 9999, "messengers": 28938, "scramble": 25740, "prototype": 8773, "2500": 25108, "motors": 9693, "##fan": 15143, "inn": 7601, "prompt": 25732, "pictures": 4620, "reactivated": 28577, "adjunct": 20621, "math": 8785, "stay": 2994, "ale": 15669, "sound": 2614, "490": 22288, "repeating": 15192, "choi": 18151, "hole": 4920, "spikes": 19547, "truly": 5621, "assumptions": 17568, "233": 22115, "drops": 9010, "twin": 5519, "ui": 21318, "holding": 3173, "symmetrical": 23476, "bae": 25818, "vortex": 23463, "##hedral": 27310, "##ilised": 21758, "april": 2258, "elevations": 18166, "##hane": 28006, "harm": 7386, "324": 27234, "controversy": 6704, "separating": 14443, "devastating": 14886, "updated": 7172, "##ashi": 12914, "tq": 28816, "berber": 27514, "tale": 6925, "viii": 9937, "attribute": 17961, "semantic": 21641, "fund": 4636, "252": 22898, "proceeded": 8979, "attain": 18759, "morris": 6384, "cdp": 8561, "##cating": 18252, "contributors": 16884, "reconstructed": 14858, "coulter": 28293, "begun": 5625, "transporting": 18276, "absolutely": 7078, "239": 23688, "pharmaceuticals": 24797, "fill": 6039, "limbs": 10726, "undoubtedly": 17319, "dioxide": 14384, "##eed": 13089, "guard": 3457, "season": 2161, "pumping": 14107, "##cola": 26289, "harvest": 11203, "relations": 4262, "suzuki": 14278, "420": 17442, "exceeds": 23651, "manipulated": 20063, "maybe": 2672, "hybrids": 23376, "labs": 13625, "##nen": 10224, "manipulating": 26242, "crystalline": 24628, "cape": 4880, "chronological": 23472, "resembled": 15881, "316": 23980, "pau": 29025, "aren": 4995, "anderson": 5143, "perfectly": 6669, "##itating": 16518, "berries": 22681, "aside": 4998, "hon": 10189, "scalp": 21065, "##lman": 12624, "##ures": 14900, "lina": 27022, "maturity": 16736, "nonlinear": 27400, "usual": 5156, "happens": 6433, "weaken": 23021, "winter": 3467, "mae": 11530, "invariant": 23915, "circles": 7925, "darkness": 4768, "billion": 4551, "teeth": 4091, "245": 21005, "expense": 10961, "wes": 14008, "##ily": 6588, "longest": 6493, "cages": 27157, "248": 24568, "##uchi": 15217, "60s": 20341, "extensions": 14305, "##feld": 8151, "##gor": 20255, "##rret": 27032, "hbo": 14633, "##zan": 13471, "participant": 13180, "province": 2874, "rack": 14513, "337": 28489, "shrimp": 20130, "##tting": 13027, "tailored": 21727, "##resh": 21898, "##bry": 25731, "##ika": 7556, "##lad": 27266, "pausing": 20490, "outputs": 27852, "wavelengths": 29263, "conflicts": 9755, "len": 18798, "##omorphic": 28503, "gaining": 8550, "##nden": 25915, "overs": 15849, "temporary": 5741, "mbc": 27262, "grouping": 19765, "##\u22121": 27944, "##zos": 28370, "##rous": 13288, "370": 16444, "york": 2259, "orchestrated": 23339, "##wal": 13476, "##tist": 16774, "obscure": 14485, "benjamin": 6425, "rolling": 5291, "sixth": 4369, "residence": 5039, "##guchi": 16918, "##scent": 27654, "##inge": 23496, "##chet": 20318, "panic": 6634, "legion": 8009, "##nza": 16786, "##bala": 25060, "explicit": 13216, "##\u2217": 30125, "##hara": 11077, "sharply": 9249, "bred": 13680, "##cco": 21408, "$": 1002, "##gata": 26589, "lenses": 15072, "##isk": 20573, "##hering": 22658, "squares": 14320, "placement": 11073, "ramp": 13276, "favourable": 18731, "##ung": 5575, "##\u03b8": 29725, "speculation": 12143, "wen": 19181, "6000": 25961, "##hardt": 13778, "pastor": 9220, "falls": 4212, "lcd": 27662, "auf": 21200, "##core": 17345, "unprecedented": 15741, "orbital": 13943, "lobes": 24423, "orient": 16865, "261": 24441, "##lative": 26255, "crosses": 7821, "295": 21679, "331": 27533, "confinement": 21551, "encompasses": 13974, "##oj": 29147, "##uously": 28078, "helsinki": 12331, "tian": 23401, "depot": 8470, "kang": 16073, "explicitly": 12045, "habit": 10427, "accessed": 11570, "browning": 18778, "fight": 2954, "agitation": 22356, "rash": 23438, "boots": 6879, "dal": 17488, "##bber": 29325, "nhl": 7097, "bach": 10384, "thanks": 4283, "nee": 7663, "incoming": 14932, "wine": 4511, "think": 2228, "590": 25186, "producer": 3135, "##hong": 19991, "##uno": 27819, "awareness": 7073, "spheres": 19885, "instant": 7107, "historically": 7145, "sheath": 21867, "professional": 2658, "1979": 3245, "##pipe": 24548, "coherent": 18920, "destroy": 6033, "##ult": 11314, "learn": 4553, "neighbor": 11429, "##jack": 17364, "unsuccessful": 7736, "kumar": 9600, "raj": 11948, "##chu": 20760, "wish": 4299, "##ometer": 18721, "##lene": 11474, "london": 2414, "##zhi": 19436, "aggravated": 25817, "appreciated": 12315, "##dial": 27184, "##bach": 7693, "davis": 4482, "omnibus": 27284, "scaling": 25169, "accord": 15802, "zoo": 9201, "##wn": 7962, "ken": 6358, "readers": 8141, "seeking": 6224, "rebound": 27755, "277": 25578, "cub": 21987, "excel": 24970, "##edance": 29605, "skills": 4813, "bold": 7782, "train": 3345, "##asse": 27241, "##tori": 29469, "saga": 12312, "##wing": 9328, "lia": 22393, "##jk": 15992, "##yad": 25152, "1978": 3301, "reflection": 9185, "435": 24125, "scaled": 18953, "##qual": 26426, "connects": 8539, "syntax": 20231, "doping": 23799, "jagged": 18187, "##isse": 23491, "##dini": 26039, "292": 25797, "yuan": 11237, "tex": 16060, "##lves": 20899, "##imating": 22835, "declaration": 8170, "303": 19988, "1975": 3339, "said": 2056, "##cker": 9102, "spain": 3577, "strengthening": 16003, "##shin": 17426, "simplicity": 17839, "provoked": 19157, "##centric": 22461, "avenue": 3927, "movies": 5691, "elm": 17709, "##hein": 26496, "niger": 16842, "251": 22582, "mars": 7733, "analogy": 23323, "##oned": 17799, "sensation": 8742, "organizing": 10863, "recognised": 7843, "eligible": 7792, "fis": 27424, "chase": 5252, "recommend": 16755, "263": 25246, "exhausted": 9069, "##plify": 28250, "constituted": 11846, "quadrant": 29371, "places": 3182, "##shing": 12227, "257": 24368, "##umatic": 25360, "##eum": 14820, "collateral": 24172, "##coe": 16288, "pollution": 10796, "273": 25371, "451": 28161, "harness": 17445, "poultry": 22468, "##fle": 21031, "interruption": 24191, "lew": 24992, "##rmi": 28550, "##udes": 22087, "dom": 14383, "ska": 24053, "client": 7396, "distortion": 20870, "##mbo": 13344, "transverse": 18323, "intersection": 6840, "originates": 16896, "relaxed": 8363, "transfers": 15210, "##cide": 27082, "website": 4037, "erosion": 14173, "##ition": 22753, "##sw": 26760, "##itation": 18557, "purple": 6379, "decor": 25545, "evenly": 18030, "##heads": 13038, "definite": 15298, "##dae": 6858, "##\u2264": 30135, "ecological": 12231, "approximation": 20167, "pixels": 27725, "##tium": 16398, "##qa": 19062, "faa": 17032, "##rily": 11272, "consume": 16678, "##kow": 24144, "##uj": 23049, "declines": 26451, "##icus": 14239, "##neck": 18278, "mart": 20481, "##kur": 18569, "##asco": 28187, "placing": 6885, "271": 25103, "##hia": 12995, "piece": 3538, "##\u03c3": 29733, "##rie": 7373, "endurance": 14280, "##lous": 15534, "schedule": 6134, "vox": 29450, "255": 20637, "gentle": 7132, "##iac": 20469, "##aka": 11905, "##chon": 24561, "tongue": 4416, "stretches": 14082, "296": 27200, "##ference": 25523, "##rsa": 22381, "minority": 7162, "495": 29302, "##coat": 16531, "##aris": 23061, "sustaining": 22663, "transportation": 5193, "##ngo": 16656, "meeting": 3116, "##rian": 6862, "##sty": 21756, "\u2020": 1526, "reset": 25141, "##dling": 14423, "coincided": 18616, "surge": 12058, "impressive": 8052, "housing": 3847, "incapable": 19907, "hats": 16717, "girls": 3057, "##tiv": 29068, "reinforced": 11013, "emergency": 5057, "spring": 3500, "sui": 24086, "ancestry": 11377, "317": 26628, "dallas": 5759, "arbitrary": 15275, "ethnicity": 18240, "extinction": 14446, "peanut": 21443, "obstacle": 18355, "densely": 19441, "coral": 11034, "fingers": 3093, "modelled": 23364, "crescent": 13152, "##awa": 10830, "delaying": 29391, "##cape": 19464, "##tail": 14162, "drying": 17462, "academy": 2914, "lambda": 23375, "distinctly": 19517, "realistic": 12689, "amazon": 9733, "computing": 9798, "stacks": 20829, "marc": 7871, "##ulent": 27581, "##gum": 22850, "ban": 7221, "stats": 26319, "visually": 17453, "inversion": 28527, "hospitalized": 24735, "industries": 6088, "##uto": 16161, "photographed": 16164, "expectation": 17626, "gonzalez": 10121, "document": 6254, "atmospheric": 12483, "##minate": 19269, "sure": 2469, "inca": 27523, "phosphorus": 25473, "sis": 24761, "238": 22030, "262": 21950, "##elled": 21148, "##lev": 20414, "##lined": 18194, "pulling": 4815, "246": 22376, "pursued": 9505, "serra": 22737, "herbs": 17561, "say": 2360, "##alis": 13911, "reverted": 16407, "cement": 11297, "request": 5227, "aware": 5204, "lever": 15929, "displaced": 12936, "indian": 2796, "sbs": 21342, "##wil": 29602, "##hang": 18003, "applies": 12033, "evidently": 15329, "strengthened": 13949, "313": 22997, "meyer": 11527, "operator": 6872, "reservoirs": 22535, "producers": 6443, "wan": 14071, "socio": 17522, "uncertainty": 12503, "segregated": 24382, "285": 21777, "directs": 23303, "##dles": 27822, "spiral": 12313, "chat": 11834, "##till": 28345, "lass": 27333, "inherently": 26096, "##nov": 16693, "sessions": 6521, "press": 2811, "##onte": 28040, "##vn": 16022, "neighbouring": 9632, "249": 23628, "snaps": 20057, "##atus": 15590, "##tad": 17713, "##ok": 6559, "hairy": 15892, "sao": 7509, "cough": 19340, "##page": 13704, "uncommon": 13191, "##nds": 18376, "emerges": 19391, "perpendicular": 19581, "380": 17014, "service": 2326, "graphical": 20477, "habits": 14243, "proxy": 24540, "convey": 16636, "##dry": 21190, "newer": 10947, "510": 23475, "interpreting": 25455, "fifty": 5595, "##ested": 17944, "motivated": 12774, "dong": 11947, "attained": 12754, "emphasizes": 20618, "282": 26267, "offering": 5378, "restart": 23818, "somehow": 5064, "lex": 17244, "durable": 25634, "##lich": 18337, "illustrating": 28252, "tons": 6197, "harvesting": 21534, "##lga": 27887, "catch": 4608, "traps": 16735, "authentic": 14469, "lock": 5843, "yer": 20416, "helping": 5094, "berry": 10498, "fei": 24664, "##orn": 9691, "sequel": 8297, "bull": 7087, "noticeably": 25327, "\u025b": 1115, "##gative": 26792, "went": 2253, "##ller": 10820, "acquiring": 13868, "suit": 4848, "##fted": 18915, "##rized": 18425, "##erated": 16848, "planned": 3740, "unconventional": 23693, "505": 28952, "mechanics": 9760, "imperative": 23934, "cobalt": 25627, "237": 23297, "satisfactory": 23045, "snake": 7488, "relied": 13538, "##wai": 21547, "reacting": 24868, "lang": 11374, "williams": 3766, "##dicate": 16467, "artifacts": 10471, "irrelevant": 22537, "365": 19342, "bulge": 23708, "spaced": 19835, "##yer": 10532, "##ively": 14547, "##ssion": 28231, "##view": 8584, "##urg": 12514, "##moral": 22049, "tolerate": 19242, "emphasizing": 22671, "mage": 17454, "minneapolis": 11334, "enamel": 29484, "xx": 22038, "ict": 25891, "chew": 21271, "imperfect": 29238, "questioned": 8781, "tread": 29449, "transformations": 21865, "sing": 6170, "belonged": 6272, "services": 2578, "##\u03bb": 29727, "script": 5896, "universally": 21186, "clearing": 8430, "pacific": 3534, "scrap": 15121, "##lda": 15150, "##cene": 17968, "259": 25191, "##eda": 11960, "salvage": 18340, "canal": 5033, "schemes": 11683, "titanium": 23431, "##uber": 21436, "isa": 18061, "immersion": 27013, "parallels": 18588, "epsilon": 28038, "570": 24902, "continuing": 5719, "trek": 10313, "locked": 5299, "doing": 2725, "##lal": 13837, "paid": 3825, "fun": 4569, "permitted": 7936, "technological": 10660, "incorrect": 16542, "experiencing": 13417, "axes": 19589, "wounded": 5303, "adams": 5922, "##gging": 12588, "taylor": 4202, "##dies": 18389, "calling": 4214, "fundamentally": 24670, "tai": 13843, "restraint": 19355, "nov": 13292, "tug": 12888, "veterinary": 15651, "views": 5328, "kun": 28919, "vinyl": 8877, "infancy": 22813, "turning": 3810, "millions": 8817, "alternating": 15122, "centrally": 25497, "impose": 17607, "metallic": 12392, "##sea": 17310, "emotion": 7603, "accomplish": 14570, "await": 26751, "reasonably": 16286, "mediation": 26435, "curved": 9203, "farm": 3888, "##sei": 20240, "courses": 5352, "##ail": 12502, "layered": 21323, "items": 5167, "deemed": 8357, "302": 22060, "pits": 14496, "identifiable": 27800, "drift": 11852, "outstanding": 5151, "##scan": 29378, "restrained": 19868, "sato": 20251, "rays": 9938, "subsp": 24807, "##nche": 26091, "fractures": 28929, "descriptions": 13271, "interfered": 28976, "##tery": 20902, "immersed": 26275, "##tern": 16451, "argues": 9251, "esa": 28776, "casa": 14124, "homer": 11525, "spreads": 20861, "congo": 9030, "peach": 18237, "elaborate": 9603, "ton": 10228, "##optera": 25324, "priority": 9470, "guiding": 14669, "unnecessary": 14203, "agreed": 3530, "ist": 21541, "breadth": 25291, "computation": 22334, "fell": 3062, "##ulsive": 23004, "americans": 4841, "ross": 5811, "##mora": 22122, "##maker": 8571, "beside": 3875, "1st": 3083, "##wed": 15557, "jung": 11810, "deposit": 12816, "natal": 17489, "##amen": 27245, "cass": 16220, "invaded": 10836, "##oses": 27465, "subjective": 20714, "solar": 5943, "##cave": 27454, "##dor": 7983, "ensembles": 21528, "harris": 5671, "##ductive": 26638, "executed": 6472, "balloon": 13212, "brasil": 21133, "approx": 22480, "defensive": 5600, "founder": 3910, "programme": 4746, "genesis": 11046, "pepsi": 27237, "beer": 5404, "##kov": 7724, "employs": 13495, "autopsy": 24534, "isn": 3475, "revision": 13921, "discovering": 13648, "##holder": 14528, "calls": 4455, "penetrating": 22391, "affiliated": 6989, "##efe": 27235, "correspondence": 11061, "##iko": 12676, "spans": 14798, "picked": 3856, "compute": 24134, "322": 23768, "restraints": 28054, "kato": 27496, "chilling": 27017, "ambiguous": 20080, "vomiting": 24780, "##bbing": 23200, "stern": 8665, "independence": 4336, "##chang": 22305, "##tian": 10772, "december": 2285, "##erate": 22139, "finely": 22126, "occasional": 8138, "bears": 6468, "administering": 28965, "##ances": 26755, "##uting": 20807, "equipment": 3941, "##eran": 23169, "##rona": 26788, "tao": 20216, "##oint": 25785, "assimilation": 27574, "intimately": 29024, "repairing": 26296, "ladder": 10535, "yes": 2748, "##zman": 24340, "proposes": 17146, "thomas": 2726, "encompass": 25281, "##dder": 20791, "##pw": 28400, "##uil": 19231, "paz": 18183, "sash": 24511, "loose": 6065, "january": 2254, "630": 23609, "410": 19151, "engages": 24255, "theories": 8106, "##efined": 28344, "##ssel": 21218, "iteration": 27758, "bass": 3321, "schmidt": 12940, "neighbors": 10638, "740": 25833, "ito": 23333, "simplest": 21304, "doubt": 4797, "debated": 15268, "##cki": 18009, "renew": 20687, "caste": 14542, "mls": 16287, "poised": 22303, "##ffa": 20961, "##lizer": 28863, "##kam": 27052, "sexually": 12581, "##wski": 10344, "1990s": 4134, "tanaka": 21829, "lopez": 8685, "nominal": 15087, "annually": 6604, "depicts": 11230, "referring": 7727, "occupies": 14133, "247": 23380, "shade": 8703, "licensed": 7000, "virtue": 11870, "collaborators": 21315, "##over": 7840, "weiss": 17889, "ensured": 16316, "floating": 8274, "dunne": 26553, "stands": 4832, "formally": 6246, "##mei": 26432, "compression": 13379, "quasi": 17982, "facts": 8866, "polo": 11037, "##imated": 20592, "remy": 22712, "shallow": 8467, "1977": 3355, "##nko": 16107, "##rst": 12096, "##nne": 10087, "french": 2413, "standing": 3061, "stone": 2962, "surprise": 4474, "mandatory": 10915, "##ieg": 28872, "alarm": 8598, "stirring": 18385, "##zee": 23940, "vehicles": 4683, "discontinued": 8944, "weighing": 15243, "mediterranean": 7095, "wit": 15966, "coarse": 20392, "silva": 11183, "denotes": 14796, "paul": 2703, "franklin": 5951, "##cens": 19023, "##wald": 11191, "competitor": 12692, "540": 20263, "liang": 16982, "spray": 12509, "rotor": 18929, "sensed": 10596, "managed": 3266, "325": 19652, "assumes": 15980, "flora": 10088, "climate": 4785, "258": 24398, "loud": 5189, "##\u03c9": 29739, "oz": 11472, "dominance": 13811, "engaging": 11973, "##eded": 19082, "aquatic": 13582, "borders": 6645, "##oit": 28100, "##pio": 22071, "goes": 3632, "faithful": 11633, "neglected": 15486, "june": 2238, "claims": 4447, "##kai": 11151, "##lean": 20898, "omitted": 16647, "ensuing": 13831, "fcc": 14420, "##nology": 21020, "##nir": 29339, "##tres": 19168, "texas": 3146, "relieved": 7653, "338": 27908, "tracked": 12808, "##mme": 20058, "##rda": 13639, "practices": 6078, "freedom": 4071, "sealed": 10203, "460": 17267, "gordon": 5146, "expands": 24545, "##vot": 22994, "guest": 4113, "arrangements": 7565, "steadily": 11328, "##dron": 19440, "viper": 17947, "425": 23285, "##ight": 18743, "##fine": 23460, "##tock": 17406, "##mined": 25089, "##ings": 8613, "elemental": 19529, "##hale": 15238, "tko": 26537, "exchanged": 10573, "basically": 10468, "execute": 15389, "dion": 19542, "formerly": 3839, "##edd": 22367, "comprehension": 26683, "ideas": 4784, "transparent": 13338, "painful": 9145, "##fia": 22749, "##iving": 14966, "##grin": 24860, "##urs": 9236, "films": 3152, "introduces": 13999, "mantle": 16019, "##kas": 13716, "##urn": 14287, "skipping": 25978, "eden": 10267, "mirrored": 22243, "manson": 21440, "qb": 26171, "##hul": 21886, "##unt": 16671, "camel": 19130, "dams": 17278, "assignments": 14799, "rotational": 25254, "##mise": 28732, "relocation": 18344, "##copic": 26461, "##lore": 20186, "##lass": 27102, "agency": 4034, "acknowledged": 8969, "destructive": 15615, "eras": 28500, "lasted": 6354, "send": 4604, "##eral": 21673, "outline": 12685, "##ologists": 16886, "fifteen": 5417, "yd": 21076, "john": 2198, "thousand": 4595, "##emon": 26941, "atlantic": 4448, "279": 25745, "elmer": 21464, "taxonomic": 27691, "##hli": 27766, "clocks": 20940, "blasts": 25829, "claimed": 3555, "kernel": 16293, "strata": 22913, "##promising": 25013, "submerged": 13563, "##erry": 19826, "seek": 6148, "arguing": 9177, "purely": 11850, "obstacles": 15314, "stool": 14708, "gun": 3282, "sent": 2741, "earth": 3011, "really": 2428, "advancing": 10787, "marco": 8879, "olive": 9724, "argument": 6685, "proving": 13946, "314": 26257, "organisation": 5502, "##rde": 25547, "##hed": 9072, "restrain": 28467, "##uga": 16377, "##rah": 10404, "281": 22955, "286": 24921, "council": 2473, "compiled": 9227, "wealth": 7177, "trade": 3119, "gets": 4152, "happen": 4148, "269": 25717, "311": 23532, "arousal": 18905, "##region": 23784, "eclipse": 13232, "bringing": 5026, "##low": 8261, "mortal": 9801, "cool": 4658, "osaka": 13000, "extras": 26279, "verb": 12034, "dust": 6497, "lexi": 16105, "compatibility": 21778, "stocks": 15768, "ample": 20851, "supervision": 10429, "guarantee": 11302, "##chs": 18069, "abu": 8273, "relying": 18345, "reasoning": 13384, "##zhou": 9791, "copa": 10613, "jd": 26219, "episode": 2792, "##hoe": 14490, "squared": 19942, "licensing": 13202, "##onis": 27296, "ending": 4566, "sant": 15548, "crush": 10188, "stark": 9762, "tran": 25283, "315": 22904, "preserves": 18536, "worked": 2499, "mobilized": 27526, "matt": 4717, "267": 25491, "companies": 3316, "message": 4471, "##bai": 26068, "melt": 14899, "transmitting": 23820, "gambia": 26728, "diamond": 6323, "rust": 18399, "veins": 9607, "occupational": 16928, "##aus": 20559, "1976": 3299, "283": 25504, "##tsu": 10422, "boo": 22017, "artifact": 20785, "dispersal": 27602, "collapsed": 7798, "##nant": 16885, "stein": 14233, "##roup": 22107, "yao": 23711, "##mbled": 23931, "##reen": 28029, "traction": 16493, "rods": 19485, "##una": 9521, "##ske": 17140, "trimmed": 21920, "##enberg": 11029, "examinations": 14912, "breath": 3052, "278": 24709, "##uch": 10875, "##ied": 6340, "530": 23523, "tong": 15740, "revolution": 4329, "balancing": 20120, "adjustments": 24081, "costly": 17047, "mentioning": 18625, "##rar": 19848, "peng": 26473, "korean": 4759, "##iger": 17071, "mara": 13955, "encouraged": 6628, "284": 26871, "failures": 15428, "adolescent": 20274, "780": 28601, "##tized": 23355, "methane": 24481, "erase": 22505, "aura": 15240, "notwithstanding": 26206, "juice": 10869, "takahashi": 25585, "##iya": 8717, "bsc": 23533, "fourier": 26899, "coal": 5317, "paralysis": 26287, "feeder": 21429, "averages": 20185, "##ove": 21818, "hum": 14910, "cory": 18342, "cannabis": 17985, "dahl": 27934, "update": 10651, "enforced": 16348, "fates": 26417, "##oped": 24174, "boston": 3731}